003c 
0034 
0001 
ffac 
fff9 
0059 
002c 
fffa 
ffb0 
ff9a 
fffe 
006b 
003f 
ffdc 
ff88 
0012 
005b 
000f 
fff7 
ffda 
ffef 
fffc 
0043 
ffff 
0012 
ffd7 
fffe 
0007 
ffa0 
ff7c 
ffdf 
ffef 
fffa 
ffc1 
ff85 
0054 
0066 
003f 
0025 
0022 
004b 
0028 
007b 
0034 
0054 
0014 
ffed 
0005 
004e 
003e 
001a 
002c 
001b 
002d 
ffec 
fffb 
0037 
0042 
002d 
ffc8 
0040 
0072 
002b 
0005 
ffe5 
0050 
0017 
0003 
0022 
0004 
000b 
000b 
ffa0 
ffc5 
ffbf 
000a 
ffb7 
ff8e 
ffcb 
fff5 
ffd3 
ff5b 
ffc5 
0003 
0033 
ff6a 
ffcc 
ffe0 
005e 
0035 
ff72 
ffca 
0023 
0034 
003b 
ff82 
ffce 
0029 
001e 
0070 
0048 
0027 
0000 
0005 
0047 
0057 
ffd7 
ffd2 
fffc 
0054 
0023 
ff6e 
ff9a 
003c 
0030 
ff9f 
ff69 
ffff 
fffe 
0039 
ffa2 
fff8 
0024 
0041 
003a 
001b 
0042 
ffef 
ff95 
ff8f 
ffe7 
000d 
0032 
ffab 
ff98 
ffa8 
0018 
ffda 
0041 
004e 
0002 
ffca 
0019 
003a 
0064 
001e 
002e 
000a 
0017 
001b 
