ffe1 
ffed 
fff4 
0005 
0024 
ffba 
ffa5 
ffe3 
001d 
003d 
ffab 
ff98 
fffa 
003d 
005c 
ff73 
0003 
0027 
0046 
0029 
fffa 
005d 
001d 
0013 
0001 
fff5 
fff8 
000e 
0011 
001b 
000c 
0000 
0002 
000e 
ffec 
002c 
0023 
000d 
fffe 
ffc7 
0009 
ffd2 
ffdd 
ffd5 
ffd8 
fff8 
fff9 
ffe7 
0008 
fffa 
ffd9 
ffec 
0010 
0000 
0003 
ffce 
ffce 
fff7 
0033 
0037 
ffe3 
000c 
0033 
004c 
ffee 
0036 
003d 
003b 
0003 
ffab 
0036 
0033 
0000 
ffc8 
ffcc 
ffb3 
ffc8 
ffc5 
0000 
0002 
ffc3 
fff7 
0024 
0021 
ff9e 
0018 
0033 
0041 
ffb5 
ff9e 
001d 
001d 
fff6 
ffbd 
000d 
ffa3 
ffee 
ffbf 
ffbc 
fff5 
0000 
0001 
0009 
003c 
ffdf 
ffd6 
0015 
0022 
ffd6 
ffb4 
fffc 
ffed 
ffa6 
ff8f 
0044 
0003 
ffb5 
ffa4 
0004 
0000 
ffc8 
ffb0 
fffb 
ffd9 
000d 
0008 
0004 
001a 
000e 
0000 
ffea 
0014 
000b 
fff9 
ffdd 
003a 
003d 
000a 
ffd4 
ffe4 
0012 
ffe0 
ffd6 
0031 
0000 
ffce 
0023 
0032 
001d 
0003 
0001 
ffda 
ffda 
ffe4 
ffbb 
ffe5 
0007 
0000 
fff8 
ffe3 
ffba 
fff1 
001b 
002d 
001b 
0005 
ffe0 
ffce 
0001 
0025 
0019 
ffd5 
ff82 
ffb8 
0031 
fffe 
fffe 
fff2 
0005 
0000 
000e 
001b 
001a 
0020 
0002 
ffcd 
0015 
003f 
004b 
0013 
ffe5 
ffbe 
ffe6 
0011 
fff5 
0002 
ffff 
ffd5 
0003 
0003 
001f 
fffb 
0011 
000c 
ffeb 
fffa 
001d 
0019 
ffed 
fff6 
0003 
0019 
000f 
fff3 
fff9 
ffe5 
ffeb 
fff4 
000b 
0010 
ffe1 
ffbf 
ffcc 
fffa 
0018 
ffe8 
0008 
0029 
ffe6 
ffee 
0014 
002a 
ffe3 
ffb1 
ff6e 
ffec 
ffbb 
ffea 
ffc2 
ff56 
ffc8 
ff89 
fff9 
fffe 
ff83 
0035 
0012 
ffed 
0012 
000b 
fff1 
fffc 
ffe9 
ffdd 
003d 
0022 
0003 
ffd7 
ffbf 
ffec 
0022 
fff0 
ffe3 
ffe8 
ffc7 
0003 
ffe5 
001d 
0022 
0033 
001a 
0004 
0019 
002f 
0028 
0005 
fffc 
fffd 
001d 
000c 
fff8 
0014 
fffe 
0027 
0020 
fff3 
000b 
002f 
0025 
0018 
ffe9 
ffd5 
0019 
0032 
0003 
0027 
0029 
0001 
000d 
0014 
ffe3 
fff6 
ffe0 
ffc9 
ffd6 
ffb5 
ffe5 
001d 
001a 
fffc 
ffaa 
ffdf 
003b 
003e 
000f 
ffe6 
ffd1 
0045 
006c 
001d 
ffee 
001a 
0018 
004a 
0023 
0000 
001b 
002a 
fff9 
001c 
ffeb 
fff8 
000d 
0003 
fff3 
ffc9 
ffcc 
0007 
0031 
fff6 
ffd6 
ffc5 
fffe 
0021 
0003 
ffcb 
ffd5 
0006 
fffa 
ffec 
ffcd 
ffec 
ffec 
ffe5 
ffff 
fff6 
0009 
0015 
0001 
0009 
ffbe 
fff1 
0003 
001b 
ffe9 
ffd9 
fff8 
0032 
001a 
0000 
fff6 
001a 
0026 
001e 
fff9 
003a 
fff4 
ffe6 
ffe9 
ffd1 
ffd6 
ffe5 
ffdd 
ffc6 
ffd7 
ffd9 
0000 
fff5 
0002 
001e 
ffdc 
0015 
000d 
ffcd 
fff8 
ffd9 
0014 
0027 
ff9d 
ffcc 
002b 
fff9 
ffc1 
ff99 
ffce 
0008 
0029 
fffd 
ff86 
ffc9 
0043 
004f 
ffe3 
ff81 
ffbb 
0037 
0034 
fff9 
ffaa 
ffdc 
0023 
001b 
fff6 
ffb3 
ffd2 
0014 
0021 
0009 
0000 
0010 
fff5 
001e 
fffe 
0000 
001b 
ffc1 
ffde 
fffa 
ffeb 
fff8 
ffea 
ffbb 
fffb 
fffa 
0021 
ffc4 
ff9d 
ffdf 
0042 
0012 
ffe9 
ffa9 
ffee 
0013 
0003 
ffa9 
ffdb 
0003 
002d 
ffed 
ffc2 
0057 
0014 
0015 
ffc8 
fff0 
003a 
0010 
fff1 
ffd6 
0010 
0035 
fff9 
0000 
ffef 
0001 
ffff 
ffe5 
fff0 
ffe0 
fffa 
ffee 
fff1 
fff7 
ffc7 
ffe2 
fff7 
0022 
ffec 
ffea 
ffde 
0006 
fff0 
fff6 
fffc 
fff4 
ffff 
000b 
ffff 
ffeb 
ffcb 
ffb5 
fff3 
001a 
ffe7 
ffbe 
0000 
001a 
0011 
fff2 
ffe5 
0019 
002e 
ffdf 
ffc9 
0017 
0025 
000a 
ffef 
ffeb 
0026 
0003 
ffe1 
ffff 
ffe2 
ffff 
002f 
0034 
fffd 
0040 
000e 
0037 
0058 
fff7 
0068 
0020 
004e 
0030 
ffe8 
004b 
0009 
0043 
ffbd 
ffc7 
0001 
0006 
0010 
ffe0 
ff9e 
ffaf 
fff1 
0010 
0029 
ffcb 
004e 
0021 
0023 
fff5 
0010 
005d 
001c 
0017 
ffda 
0023 
0036 
000c 
ffff 
ffd9 
fff2 
000f 
0005 
0002 
0006 
fff4 
fff7 
0019 
001d 
000a 
ffdd 
ffef 
0002 
ffe8 
ffdf 
ffdd 
ffd2 
ffe9 
ffde 
0000 
fff3 
ffb1 
ffdf 
fffe 
0007 
fff0 
ffc2 
ffcf 
001a 
001e 
0015 
ffdf 
0057 
003a 
0001 
ffd3 
ffbc 
0033 
001d 
000a 
ffbe 
fff3 
0010 
002b 
ffe8 
ffd7 
002c 
0010 
001f 
ffc3 
0000 
0025 
001c 
fff7 
fff4 
ffd7 
0030 
0028 
0001 
ffec 
ffc8 
ffed 
000a 
fff0 
ffd9 
ffc5 
fffd 
0005 
ffe9 
ffc1 
ffca 
fff1 
fffd 
ffdd 
ffc1 
ffe9 
000d 
fff5 
ffd9 
fff8 
0014 
0013 
0019 
000e 
ffd8 
ffce 
ffd6 
0019 
0023 
ffda 
ffc9 
0007 
0020 
001a 
ffd1 
ffd9 
001c 
0029 
ffeb 
ffc3 
fff8 
001c 
000f 
ffcd 
ffd1 
fffa 
0006 
0012 
ffe5 
fffa 
001a 
002a 
0064 
ffc1 
001c 
0011 
000d 
0099 
002d 
0017 
003c 
0015 
0029 
0007 
0022 
0039 
004e 
001b 
0005 
0014 
0028 
0041 
ffdc 
ffb0 
ffd4 
fff0 
0005 
fffc 
ffba 
0010 
0015 
0001 
0002 
0026 
001d 
0028 
fffd 
ffe4 
0020 
0022 
0017 
0018 
0008 
0013 
0000 
0039 
fff9 
0015 
fffc 
ffb7 
ffd3 
ffd4 
000d 
ffd6 
ffd3 
ffc7 
ffea 
0001 
ffdd 
ffcd 
ffbb 
ffe5 
0008 
ffe1 
ffca 
ffc5 
000f 
0000 
fffb 
ffe3 
ffed 
0010 
ffbc 
0000 
fff1 
ffe7 
fffd 
fff3 
0001 
001c 
ffe0 
fff2 
ffc6 
ffdc 
0007 
ffe3 
0006 
ffe4 
ffe3 
ffe5 
fff5 
ffe8 
0002 
ffef 
ffe2 
ffeb 
0010 
fff3 
fff2 
ffd8 
fff3 
ffee 
0018 
0033 
0024 
001c 
0017 
002e 
003e 
000e 
000b 
0018 
ffd7 
ffd1 
ffce 
ffdb 
ffdd 
000c 
000b 
fff4 
0006 
ffe3 
ffff 
ffef 
ffe6 
ffec 
fffd 
0023 
0017 
0006 
0017 
0012 
0028 
0010 
0022 
0014 
fff7 
fff7 
ffe0 
0009 
0003 
fff0 
ffe8 
ffd7 
fff7 
fff4 
0005 
0021 
ffc6 
ffd9 
001e 
0013 
fff1 
ffc7 
ffa4 
fffc 
ffe6 
ffb3 
ff62 
ffa4 
ffb7 
ffdf 
ff9c 
000d 
fff6 
fff0 
ffc7 
ffed 
001d 
002f 
001b 
ffd3 
0003 
ffbb 
ffff 
001b 
fff7 
0041 
ffca 
ffe6 
ffd5 
ffe6 
000c 
fff2 
ffe2 
000d 
000b 
0012 
0031 
0035 
002f 
002f 
000d 
ffed 
fff5 
0019 
fffb 
0003 
ffe3 
fffb 
0007 
000b 
0000 
0032 
0001 
001f 
0002 
0048 
000a 
0005 
0001 
fffa 
ffdd 
fff0 
001d 
0022 
fffb 
0033 
0023 
fff6 
0015 
0007 
002f 
0039 
0028 
0003 
ffcd 
0025 
0023 
ffd9 
ffa8 
ffc6 
0004 
ffcb 
ffbd 
ffa9 
ffc2 
fff9 
ff9e 
ffcb 
ffdb 
fff7 
fffa 
ffd8 
ffe6 
001b 
000f 
ffe8 
0001 
ffea 
0007 
ffcc 
fff0 
ffc0 
ffac 
ff9b 
ffac 
ffbf 
ff99 
ffd4 
ffea 
0004 
0000 
000a 
0038 
004f 
003d 
0014 
0023 
003e 
0014 
0032 
ffff 
0012 
ffe6 
ffd3 
fffb 
0025 
fff5 
ffec 
ffce 
fffe 
0012 
ffe2 
ffaf 
ffd0 
ffd2 
ffdb 
ffbd 
ffd1 
ffff 
0015 
000c 
0025 
0009 
fffd 
0029 
006a 
0048 
0024 
0033 
004c 
0001 
ffd1 
ffb7 
ffc3 
ffda 
ff8b 
ffe5 
ffe3 
ffc4 
fffb 
0024 
0054 
0011 
001f 
0027 
003d 
0035 
0001 
0007 
fffe 
002a 
0017 
fffe 
0009 
ffec 
fff1 
ffee 
ffe8 
fff4 
ffe3 
0000 
0009 
0012 
000f 
0003 
0022 
001b 
fffc 
ffeb 
ffe0 
fff7 
fff6 
0014 
0024 
000f 
0011 
ffe5 
ffdb 
0006 
ffcd 
0013 
ffad 
ff9c 
ffaa 
ffc0 
ffd4 
ffb8 
ffdb 
0003 
fff8 
0016 
0029 
0021 
003d 
002e 
001d 
0017 
0013 
0009 
0033 
0015 
ffda 
ffa4 
ffe5 
001a 
0031 
ffb6 
ffa1 
0012 
0012 
0005 
ff86 
ffea 
001e 
0014 
ffc9 
ffd6 
0015 
0016 
000e 
ffe8 
0018 
0021 
0011 
000a 
0002 
ffec 
ffd0 
fff7 
fffc 
fffc 
ffff 
ffe8 
0011 
0008 
001b 
ffe1 
ffed 
0000 
ffef 
0006 
ffe5 
0011 
0018 
ffff 
fff6 
ffec 
0002 
fffa 
fff1 
0015 
fff0 
ffd1 
fffd 
0037 
0010 
ffd7 
fffb 
0029 
000c 
ffeb 
ffff 
0000 
0025 
fff7 
fff5 
0010 
0022 
0010 
ffed 
ffed 
0008 
001a 
000a 
fffd 
ffd1 
ffee 
0010 
003e 
0029 
ffec 
ffec 
0020 
002f 
fff8 
000e 
000b 
0016 
0039 
ffe8 
001c 
0020 
fff4 
ffef 
ffc8 
0002 
001b 
0000 
ffba 
ff8f 
ff9c 
ffea 
0035 
0017 
ffde 
0001 
0001 
0033 
ffd8 
0009 
002b 
001d 
fffb 
ffcc 
0005 
004d 
0019 
fff0 
ffd8 
ffb9 
0020 
0005 
fff1 
ffc0 
ffbe 
0004 
ffd7 
ffdb 
ffe4 
0018 
000d 
ffe7 
fff2 
0007 
0013 
fffd 
fffa 
ffd8 
0000 
0032 
fff2 
ffb6 
ffd8 
000f 
0023 
fff5 
ffc3 
fff5 
0018 
fff5 
ffea 
fffd 
0002 
ffd9 
ffd3 
0017 
000f 
002a 
0005 
ffec 
fff8 
fffe 
fff6 
0011 
0014 
0006 
fff8 
ffbc 
ff99 
ffc4 
ffee 
0000 
ffd0 
ffb0 
ffe9 
0016 
001e 
0003 
000f 
0029 
0008 
0019 
002d 
0025 
001a 
ffcb 
ffd6 
ffac 
ffaa 
ffb2 
ffff 
ffeb 
ffc8 
ffdb 
fff9 
001a 
0049 
003b 
002c 
0003 
0016 
fff5 
0014 
000c 
001b 
0026 
0023 
002f 
0029 
0023 
0001 
fffc 
fffc 
0004 
0000 
ffdd 
ffc7 
ffb3 
ffba 
ffd9 
ffcc 
ffdf 
ffe6 
0005 
0011 
001d 
0049 
0028 
0032 
0016 
001e 
0046 
0028 
0020 
0016 
ffec 
ffcd 
ff94 
ffad 
ffd1 
ff9f 
ffbc 
ffd0 
0001 
fffd 
0056 
0074 
005d 
0018 
0019 
000c 
ffff 
000c 
ffff 
ffe9 
ffe8 
0000 
ffe2 
ffda 
fffe 
000b 
0002 
fffd 
0013 
002a 
ffcf 
ffef 
ffef 
0026 
0000 
fffa 
ffeb 
0007 
ffd7 
ffc5 
ffea 
0017 
0008 
0028 
0031 
0003 
001f 
0014 
0029 
000b 
ffe0 
ffec 
ffd9 
ffd3 
ffe2 
fffe 
fffc 
0000 
0000 
ffea 
0037 
001a 
0004 
fff0 
0000 
0003 
000c 
0010 
fff5 
0030 
fffd 
0001 
0032 
ffe4 
0020 
ffad 
ffcc 
0013 
fff5 
0029 
ffa2 
ffef 
0010 
0008 
0020 
0006 
001d 
0001 
fff8 
0010 
000f 
0018 
ffee 
fff0 
0000 
0005 
fffa 
fff9 
fff9 
fffa 
fff0 
0002 
0018 
ffe8 
ffe1 
000d 
000b 
000b 
ffb4 
ffde 
fff8 
0013 
ffc6 
ffe9 
ffde 
000e 
ffe1 
ffd1 
fff7 
0010 
ffed 
ffde 
fff3 
fff8 
fffe 
ffb6 
ffd6 
0012 
fffd 
0005 
0009 
000f 
0016 
fff6 
000c 
0047 
002d 
fff1 
fff1 
0010 
ffe2 
ff97 
ffbc 
0001 
fff4 
ff8d 
ffcf 
ffef 
0027 
0035 
000b 
0006 
ffe8 
0036 
001c 
0022 
ffee 
ffba 
0033 
0040 
ffcd 
ff97 
ffcc 
0005 
fff9 
fff1 
ffec 
0012 
001d 
fff4 
ffe0 
004a 
0010 
003e 
ffe7 
0071 
0064 
ffdb 
004a 
ffe8 
0038 
ffcb 
0012 
005d 
ffeb 
ffce 
ffef 
004b 
001a 
ffdd 
fff5 
0003 
ffef 
ffe2 
fff9 
0003 
0023 
ffeb 
ffdc 
ffe2 
002e 
0020 
0000 
ffc5 
ffde 
0060 
ffe8 
ffd5 
ffc1 
ffe8 
ffe1 
ffec 
ffee 
ffea 
ffca 
0019 
ffd9 
ffe6 
001b 
003e 
0047 
fffa 
ffe8 
ffce 
0018 
0015 
003c 
0031 
fff8 
ffc7 
000e 
002b 
002c 
0023 
ffff 
0000 
002f 
0000 
0012 
0026 
0008 
ffb3 
ffa5 
002b 
0042 
0030 
0006 
ffad 
ff84 
ffed 
0012 
0033 
001d 
ffea 
ffc6 
fff7 
0003 
000f 
0026 
002a 
fff9 
0013 
0001 
0021 
002b 
ffcd 
ffc1 
ffc3 
fff2 
0034 
ffe4 
ffd2 
ffa2 
ffdf 
0022 
0014 
001e 
ffcf 
ffc4 
ffcf 
fff3 
0029 
001e 
fff0 
fffe 
0001 
0015 
fff4 
0024 
0014 
ff4b 
ffb6 
004a 
0076 
0064 
ffe2 
ffa1 
ff82 
ffc7 
0011 
002b 
0006 
ff9e 
ffbb 
ffca 
003a 
000c 
0003 
0012 
000f 
0057 
fff6 
000b 
0020 
0012 
ff81 
ffd0 
001e 
002b 
ffe6 
ffd0 
ffbb 
ffd6 
0019 
ffff 
0015 
ffec 
ffc1 
ffc1 
fff3 
0016 
001e 
0005 
ffb9 
ffbd 
0017 
000e 
0020 
0013 
fffa 
ffdf 
ffcd 
ffc5 
0026 
0059 
0032 
ffc1 
ff83 
ff94 
0003 
0021 
0019 
fff9 
ffab 
ffbc 
ffe1 
0020 
0043 
0025 
0009 
ffc0 
ffda 
0000 
0008 
001c 
0014 
ffe0 
ffcd 
ffd2 
ffe8 
fff3 
0027 
0005 
ffc2 
0002 
ffe6 
004a 
0052 
ffdf 
ffde 
ffe7 
0011 
0053 
0012 
fff6 
000c 
ffc7 
0004 
0007 
000c 
ffed 
fff1 
ffdd 
fffa 
0010 
0015 
0004 
ffeb 
0002 
0010 
fff9 
fffe 
0018 
fff7 
0001 
ff89 
ffe6 
0039 
0039 
0017 
fff4 
ffb9 
ffcd 
0006 
fffa 
ffec 
fff9 
0004 
fffe 
fff5 
0008 
0004 
0006 
ffff 
000c 
001b 
0005 
000c 
fff1 
ffe6 
ffda 
fff0 
0002 
fff3 
0008 
ffdd 
ffef 
0009 
001c 
0017 
ffde 
ffe2 
0002 
0017 
000f 
ffcf 
0001 
fff8 
ffcd 
002e 
ffc3 
001b 
ffe9 
ff99 
0014 
ffb6 
0005 
ffcb 
ff8a 
ff9d 
ff9b 
ffb2 
ff96 
ffa8 
ff5c 
000f 
0008 
fffd 
0026 
0022 
000b 
0014 
ffe1 
ffec 
0030 
001b 
0029 
ffcc 
ffef 
002d 
003c 
0036 
ffdd 
ffd3 
fff1 
000d 
0002 
ffe2 
ffe5 
ffe5 
000c 
000a 
003c 
002c 
001a 
0019 
ffff 
0010 
0001 
0007 
ffe8 
0002 
fff7 
0014 
0026 
ffb4 
002b 
004d 
0033 
0012 
ffe1 
ffbc 
0025 
000c 
001d 
fff2 
0000 
fff3 
0000 
0036 
0018 
0002 
0014 
ffe6 
ffea 
0009 
0017 
0026 
fff8 
000a 
0001 
000d 
fffa 
0021 
0034 
ffe3 
0018 
fffd 
0011 
0016 
ffe2 
ffe8 
ffbd 
ffce 
000c 
000a 
0022 
0013 
ffc5 
ffc0 
0019 
0027 
0048 
0052 
0023 
ffe7 
fff0 
fffb 
000f 
0028 
ffe8 
fff7 
ffda 
ffce 
ffef 
ffdd 
fff1 
ffdf 
000f 
0007 
0008 
0009 
ffe4 
ffca 
ffe2 
0006 
0016 
000d 
0003 
ffe6 
0002 
0005 
0014 
001d 
0011 
0009 
0017 
0000 
0009 
001e 
ffcd 
0009 
fff7 
fff7 
fff9 
fff3 
0027 
ffc9 
ffe7 
ffec 
ffda 
0011 
0003 
fffa 
0005 
ffee 
ffe8 
ffda 
ffe0 
001f 
0005 
ffe6 
ffde 
ffd6 
ffae 
ffcf 
0005 
0020 
0035 
0016 
ffd9 
ffee 
0000 
0035 
0024 
ffdf 
ffc9 
ffda 
fff6 
ffe4 
0012 
0010 
fffe 
ffd2 
fffd 
fff7 
ffdb 
fffe 
0015 
0037 
0007 
000d 
ffda 
ffd9 
0001 
001c 
0016 
ffef 
ffb2 
ffd0 
0008 
0006 
0033 
0030 
002e 
ffed 
fff9 
0015 
002d 
0039 
ffd4 
ffed 
ffed 
fff7 
002c 
ffc2 
0010 
0002 
0017 
001a 
ffe0 
fffd 
fff4 
001c 
0025 
fffe 
001c 
ffe0 
ffff 
000f 
ffdc 
ffe2 
fffc 
001b 
0008 
ffb2 
ffcc 
0000 
000a 
ffcb 
ffde 
fff9 
fffd 
0006 
fff7 
fff3 
fffd 
0003 
0013 
000b 
0001 
0017 
0010 
0028 
001e 
0005 
0038 
002d 
002c 
0016 
ffbb 
ffc7 
ffd3 
ffcd 
ffc2 
ffed 
0005 
0000 
000e 
0014 
fff4 
0012 
fffb 
0002 
001e 
0005 
000a 
fff5 
002c 
0031 
0011 
001b 
001b 
0039 
0022 
ffc1 
ffe0 
fffe 
fff6 
fff2 
000f 
000d 
ffec 
001a 
000f 
000b 
ffce 
ffcd 
001c 
001a 
fffb 
ffc1 
ff95 
ffe9 
ffe1 
ffc3 
ff81 
ff3e 
ffa1 
ff92 
ffa9 
ffca 
ffd3 
ffca 
ff96 
0047 
0005 
ffd5 
0000 
ffea 
002a 
ffd9 
0008 
002a 
0005 
0021 
ffe2 
ffe6 
ffff 
ffd0 
fffb 
ffc5 
ff9d 
ffcc 
fffa 
0004 
fff7 
ffff 
0012 
000e 
0015 
0015 
001b 
001d 
001d 
0003 
fff2 
0000 
0018 
0007 
fff9 
0007 
0021 
0029 
0024 
0017 
0034 
fff3 
fff9 
002f 
ffbc 
fff4 
fff8 
0017 
ffea 
ffcb 
fff4 
000d 
000e 
ffeb 
0002 
ffd6 
0016 
004d 
ffef 
fff4 
ffdc 
fff1 
005c 
fff9 
000d 
ffde 
ffda 
0042 
0019 
ffef 
ffe4 
0005 
0031 
001a 
ffe0 
fffa 
0000 
000c 
0013 
ffd5 
0009 
fff8 
001a 
ffec 
ffeb 
ffa7 
001b 
002f 
000f 
fffe 
ffda 
fff6 
001a 
fff9 
003c 
0003 
ffde 
0005 
0012 
0000 
ffee 
fffe 
0013 
0008 
fff4 
ffe2 
0001 
0015 
000d 
ffdb 
fff7 
000e 
0008 
000b 
fff5 
ffc7 
fff5 
001b 
0018 
ffe9 
ffed 
fff6 
0006 
0001 
0005 
ffe7 
fff2 
ffd0 
ffff 
ffc7 
ffd1 
ffc2 
ffce 
fff7 
ff81 
ffc9 
ffda 
ffc8 
ffd3 
ff84 
ffab 
ffd1 
ffda 
ff98 
ffd8 
ffb6 
ffe1 
0006 
ffb0 
0016 
000a 
fff6 
ffd2 
000d 
0003 
0031 
000d 
ffe4 
002c 
ffd9 
003c 
000a 
ffc6 
ffef 
0009 
000d 
001f 
ffe0 
ffe9 
ffeb 
ffc8 
0014 
001a 
ffda 
0001 
0015 
002d 
0026 
000f 
0012 
0002 
0014 
0008 
000a 
ffeb 
ffbc 
0012 
0019 
0016 
000c 
ffe3 
fff7 
0031 
0014 
0010 
fffa 
ffdd 
0033 
001a 
0033 
ffea 
ffd7 
0001 
ffec 
0025 
ffe9 
fff5 
000e 
fff8 
ffd0 
fff2 
0020 
ffeb 
0003 
0005 
ffff 
ffea 
fffa 
001c 
002c 
0005 
fff2 
ffe0 
ffdb 
0017 
fff8 
000f 
001b 
001c 
005b 
0048 
002f 
0006 
0022 
fff7 
ffe4 
fff9 
ffee 
ffe0 
ff98 
ffb0 
ffb2 
ffb0 
ffa6 
002b 
001f 
fff2 
ffe5 
ffcc 
ffe6 
ffdf 
ffff 
0006 
fff7 
0011 
000d 
002e 
0018 
0016 
fffb 
0029 
0031 
0015 
001f 
ffc1 
ffe3 
fffa 
0000 
0004 
ffd1 
ffe5 
ffd0 
ffb8 
ffc2 
ffc1 
0017 
0013 
0000 
ffdf 
fffc 
0004 
ffec 
0006 
fff4 
001e 
0025 
0026 
fff7 
003d 
001c 
005f 
fff4 
ffc3 
0007 
001f 
0000 
fff9 
ffcc 
0000 
ffd1 
0029 
0008 
ffaf 
ffb1 
0004 
001d 
ffd2 
ffb1 
ffc3 
0003 
0028 
fff9 
ffb4 
fff4 
000a 
003a 
0016 
000c 
0018 
ffe6 
ffd9 
ffe9 
ffc2 
ffef 
000c 
fff9 
0011 
001e 
000b 
004c 
0018 
002e 
0007 
0018 
fff2 
fffb 
fff1 
ffe1 
fff2 
ffa4 
ffa6 
ffbf 
ffc8 
ffc9 
0015 
fff0 
ffee 
ffe2 
ffe1 
