0000 ffcb ffe8 fffe 001d fff9 0005 0033 ffe1 001a 001a 000d 0008 0007 fffe 0028 002a 0007 ffe7 ffe7 0016 0018 000e fff4 0017 
003d ffe9 ffc8 ffd6 ffd8 ffe4 ffc7 fff2 0006 ffd0 0002 0003 0013 fff2 0014 0005 0005 0012 0016 ffee 0000 ffff 0005 0000 0025 
0032 0027 000e 0003 004c 0008 ffe5 ffd2 ffd9 ffee 001c 0013 ffff 0008 fff9 0002 0009 0011 000b 0007 0019 fffa ffec 000a 000e 
0045 0024 0018 0033 001b 0012 000a 0025 000d 001e ffea 0000 0031 fff1 0007 001c 0008 fff1 fff2 ffe6 0024 000f ffe5 fffa 0020 
001b 0040 0045 0032 000f fffe 0020 001a 0020 ffee ffff 0014 fff5 0015 ffee 001a ffe7 fffe fffc 0001 002f 0003 0004 ffeb 000c 
fff0 ffd9 ffb4 ffb7 ffe8 ffe2 ffd1 ffe3 fff6 ffe2 000e 000c 0020 0012 0007 001a 000f 0027 fffa 0000 fff8 0005 ffef 0001 0017 
ffe7 fff0 fff7 0008 fffb 0012 fff0 0002 0000 0019 fff8 0010 ffda 0002 0001 ffcc ffd2 ffe8 0007 ffff ffb2 ffd7 ffd7 fff1 fff4 
fff6 fff4 0015 0026 0033 fff9 fffd 000e 0015 0038 000a 0005 fffe 0025 0019 0013 0022 fff3 fff6 000d 0019 0013 ffe3 fffe 0049 
ffd7 ffa7 ffd0 fff3 ffe3 ffd9 ffbf fff5 ffef fff1 ffe4 fffd ffec ffee 0005 0017 0017 0010 000c 0013 0009 0002 0007 ffff 0012 
0022 0006 0003 003d 001c ffff 000e 0031 fffb fffc 000f ffe8 fff6 0014 fff7 001f ffeb 0003 fff8 ffdc 001c 000f 0000 001d 0010 
0003 0015 0000 ffea 000b 0019 0016 000b fff3 fff2 fff6 ffff fff0 0003 fffa ffc5 ffc6 ffea 0004 0023 ffca ffe7 0003 ffd6 0008 
ffff ffe5 fff1 fff6 fff0 0008 fffb ffe0 fff7 000c 0004 ffff 0026 0008 ffeb 0004 0009 000a 0024 fff3 0005 000f ffee 0023 0006 
ffda ffcb ffcc ffe9 fffb fff9 fffd ffff 000f 0001 000c 000a 001d 0017 0017 0013 0005 002a 0016 0005 ffed ffea fff3 fff5 0019 
ffe8 ffdd ffdf ffe2 fff5 0004 0003 fff5 ffff 0003 001f 0000 001f 0000 001d 001e 0014 000a ffff 0009 0018 fff8 0003 001a 0011 
0020 0009 0003 0019 001c 000b fffa ffe8 0007 0021 0011 ffe9 ffef fff5 0000 0004 fffa 0019 0004 0010 0012 0003 0007 0012 0018 
fff6 ffb3 ffdf ffd2 0003 ffe1 ffcc ffec ffff fffb 0013 0011 0017 0018 002a 001e 0012 0002 0010 001c 0013 000f ffe1 fff3 0011 
fffc fff6 fff8 0002 fffa 0006 000a fff6 0003 fffb fffd 0004 fffb fffc 0001 0008 0001 fffe 0000 fff4 fffd 0002 000b 0000 fff5 
0000 0000 0005 fffb fffa fff9 fffe fffd fff4 0008 fff5 0002 fffb fff4 fff2 fff1 0002 fffb fff4 0009 0004 ffff fffd fff4 0002 
0003 0002 fff5 fff4 0001 000a 000c 0005 fffd fffa fff9 fff7 0007 fffa fffd 0000 fff3 fff7 0002 fffc 0008 0007 000c fffe fff9 
fffc 0005 0008 0000 0000 ffff 0005 fffb fff8 fff2 fff6 fffa fffe 0000 fffb fff8 fffd fff1 0000 000a fff2 0008 ffff fffd 0006 
fff6 fff5 0000 fff8 0009 fffc ffff fffd fff9 fff6 fff7 0002 0006 0009 0006 0000 0008 000b 000c 0004 000a fff6 fffa fff6 fffb 
fff3 fff5 fff5 fffc fffb fff9 fff1 fff7 0000 fffa fff2 fffe fff7 0009 fff2 fff1 0008 fff3 fff2 fff2 0000 fff4 fffd fffe fff8 
0003 0004 fff4 fffc fff5 ffff 0004 fff4 fffd fffe 0003 fff7 fffc fffe 0000 fff5 0002 0000 ffff fff6 fffa 0003 0007 ffff fff3 
fff8 000c fff5 fff4 0005 000a fff7 0007 0001 0001 0002 fffe 0005 0004 0000 fff9 000a fffa 0000 fffd fffe ffff fff7 0001 000a 
fff2 0004 fff7 fff3 ffff fff4 ffff fffa fffc 0005 fffd 0007 ffff 0000 fff1 0002 fff1 fff6 0007 fffe fffd fff5 0000 fff8 fffa 
0007 fff2 0000 fffe fffb 0004 fff2 fffa 0000 fff3 0004 fffc fff5 fff5 0005 0003 0007 0005 0005 0001 0003 0001 fffe fff6 ffff 
fff1 0005 0007 0007 fff1 0002 fff7 0008 fff6 0007 fff8 0004 fff8 0003 fffd fffe 0008 fff3 fff5 0000 fff8 fffd fffb fff6 0001 
0000 0007 ffff 0003 0004 0003 0002 fffa fff8 fff8 fff4 0006 ffff fffe fff3 fff1 fffc 0007 fff8 fff6 0001 fff6 fffc 0009 0001 
0000 fff8 fffe 000c fff5 0005 fffc 0009 fff5 fff6 fff9 fff4 0002 fffa fffd 0002 0002 fff4 0005 fff6 fff5 0005 fffa 0000 fff6 
0009 fffe fff2 0008 0000 fff3 fffc 0001 0001 fffd 0002 0005 fff7 0005 0001 0003 0005 0008 ffff fff2 fff5 0000 0002 fff4 fffd 
fffb fffc fff9 0002 0003 0000 fff7 0007 fffc fff6 fffd fff2 fff4 fffb 0009 fffe fffa fffd fffb 0000 0002 fff5 fffb ffff 0001 
0000 fffa fff4 0004 0007 fffa 0006 fffc 0000 fff9 fffb fff9 0003 fffd fff7 0008 0000 0004 fff7 fff9 fffe fff6 fffe fff8 0009 
fff2 0008 000a fffb ffef 0034 fff3 ffe9 fffe 0000 0007 fff0 fff0 0008 0016 ffed 0012 fff0 ffff fff2 fff3 ffec 0001 000a ffee 
ffd8 ffd4 ffec 000c 000b fffa 0007 fff8 fffa 003e 001b 0020 0007 fff3 fff9 0026 000a ffe8 fffe fff3 001a 001f ffe8 ffd5 ffe1 
ffd2 ffd9 fff0 0004 0006 ffed ffee 0010 fff1 fff5 0005 0009 000c 0008 fff4 0007 0002 fff8 000b fff9 0010 fff8 ffe1 ffcf ffd8 
ffd9 ffd6 fffd 000d fffb 0005 0019 001d 0015 fff7 001e 0026 001e fff1 fffd 0004 0000 0008 ffec ffef 001c 002a 0004 0009 fff4 
fffb 0003 000c 0012 fff0 0015 0000 ffeb fff4 fff5 0016 0006 ffcd ffef 0001 0019 ffee ffe7 fff0 000d 0028 ffef fff5 001c 001a 
fff0 fff8 fffb 0006 0001 ffeb ffec ffe8 fffc 001a 0014 000f 000e fff1 fffc 0013 000e 0011 000d 0002 0018 0015 fff8 fff1 ffec 
000a 0012 0018 fffc fff3 0000 ffda ffc7 ffec ffe7 ffe4 fff1 0009 0004 fff0 fffa ffe6 ffec ffda ffff fff4 0010 ffd8 fff2 0032 
fffe ffef 000e 0010 fffe 000b 0002 fffb fffa ffe2 0020 0008 ffe4 ffdb ffe9 0009 000f 0000 ffde ffd9 0012 0009 fff1 ffef 0005 
ffe3 ffef 0012 0001 000c ffbd ffe2 fffe 001a 001d ffdc ffee ffe2 001c 000c fff2 fff2 0004 0003 fff8 000c fff4 fff3 0009 0001 
0004 fffb fffe 0010 0012 000a 000f 0014 ffea 0012 fffa 0013 fff6 0003 002b fffe 000a fffc 0012 0000 0013 fff1 fff7 0022 ffff 
fffb ffe9 fff8 fffb 000a ffea ffd6 fff9 ffed fffe ffdd 0002 fffd fffd ffeb fff5 fff7 fff4 0008 0019 fff4 ffee ffe8 ffff 0000 
ffe4 ffe2 fffa 0005 0027 001d 000e 0012 fffd 0017 0017 0020 0000 fff6 ffff 000d fffa fff3 fffb 0000 002c 0022 0001 ffe7 ffd3 
ffe8 ffec fff3 0009 000d ffef ffeb ffff 0004 0001 0008 001c 002a 000a fff4 fffd 0026 0015 fffb 0004 0012 0015 ffff ffcd ffee 
ffd9 0005 fffd ffea fff8 000d 0014 0003 0013 0013 001e 0022 0012 0002 0006 001f 0011 fff7 ffe7 fff4 0031 0020 000c fff2 fff0 
fffc 0003 fffd 0005 fffd 0003 0009 000f ffeb 000b 0004 0009 000c 000a 000f 0008 000d ffe6 0006 0007 0023 000e ffef fff2 ffeb 
ffd5 0001 fffc fff8 0002 0005 fffa 0012 fff8 fff6 0004 fff2 fff8 0011 002e ffdb ffea fff3 000b fff1 fffd 001c 0009 ffed ffd8 
0031 0028 0020 0009 ffe0 000b ffe9 ffe9 0023 0017 0014 0020 001b 0033 0027 0010 0017 0005 fffd ffe5 ffe7 fff7 ffde ffcd 000b 
ffb4 ffe3 0002 0024 0028 000c 0018 0002 ffe2 fff9 001c 0010 fffd 001b 0018 fff6 fff1 0005 001f 0000 0014 0002 fffa fffa ffe0 
ffdf ffcf fff1 0021 0013 ffe8 0000 0016 0000 0016 fff7 0002 000e ffc7 ffda 0003 0009 0004 ffff 001b 0009 000a fff6 fffc 0009 
ffc5 ffd7 ffe3 ffe6 fffe fffa 0000 fff2 fff6 ffff 0001 0015 fff5 0025 0025 ffef fff8 fffe ffdd ffdc 005f 0023 ffef ffe7 0013 
fffb ffe6 ffd5 fff4 fff0 001a 000b 000c ffee 0006 000f ffed ffea ffbc fff0 0026 ffe5 ffc9 fff5 ffeb 002c 0007 0004 0029 000e 
fffe fff8 0009 001d 0021 0012 0000 0008 000c 000f fff6 0004 0007 000e 000b fff8 fffd fffc 0003 0006 000b 0008 000b 0000 fff7 
0006 fff5 fffd ffe5 ffec fffd 0003 fff5 0000 ffeb 0044 002c 0012 ffe5 000f ffe7 ffd0 fff7 ffec ffff ffab ffcf fff3 000e 001e 
000b 0011 0005 fff2 ffea 0007 0001 ffe7 ffff 0004 000e 0013 0002 fffe ffff 0020 001e 000b ffcb ffbb 002b 0015 ffd7 ffe0 0023 
fff1 002e 0020 000d 002e 000a 000f fff5 000d fff4 0003 ffe6 ffd7 001d 0011 ffe9 0000 000d 0015 0009 ffe9 ffeb fffc ffef fff3 
fff7 0007 0003 0001 000b 0002 0009 000a fffa 002c fffb 000e ffff 0008 0022 000b 0012 ffed fff3 000e 002e 0005 ffe7 0021 0016 
0001 0002 0000 fff2 0004 ffef ffed 0006 0009 0000 0012 ffe7 0000 0009 0005 ffec ffe0 0000 001c 000d fff8 ffd1 ffc8 0004 0032 
fffc fff5 0021 0010 0033 0000 000b 0025 0013 ffee fffc fffe 000b 0005 001e fffc 000b 0001 0001 000b 0021 000e 001a 0000 ffde 
ffdf fffd 0012 0002 0008 0004 ffff 000b fff0 000a 001f 0016 000e 000e ffea ffcf 000f ffff fff5 fffc fff3 fffc 0001 fffb 000b 
ffe4 ffeb 0004 0003 fff3 fff5 fff2 fff5 0009 fff7 ffee 000a 0005 000b 0004 fff2 0000 000a ffff ffde 000b 0028 001f 0008 0010 
ffed ffee 000f 0012 0021 ffe2 0011 001a ffea ffe7 fffa 0004 0021 ffe1 ffe9 000b 000e 0000 0000 0008 002f 0015 0001 0005 0000 
0006 002a fff7 0012 fffa fffb 000c ffd8 0007 0000 fff6 fffe ffe4 0005 0027 ffdd 0007 0006 ffe3 ffe8 0015 0005 ffe9 fffc ffec 
003a 0011 fff8 ffe9 ffcd 002b 000f 0028 001d 0003 0000 0007 0037 0000 ffee 0003 0003 0019 fffd 000f ffdc 0003 ffed 0001 ffeb 
ffdc 0001 000d fff7 fff4 fffb 0012 fff5 ffef ffd8 ffff 0000 0006 0008 ffee fff0 ffe8 0016 001a 0000 fffa ffee 0004 0017 0004 
000c 001c 0021 0010 ffd8 fffa fff3 000e 000c fff4 ffe4 0000 fff4 ffec ffed fff4 0015 ffff fff8 fffa 000b fff8 ffe1 ffe9 0026 
001b 0027 ffee fffd fff1 0038 0018 fffa 0012 0001 001a ffe6 fff6 0008 fff2 000c fff2 000a ffdd 0003 0034 0004 fff6 0001 0023 
fff4 fff3 0031 0028 ffec ffdd 0004 0000 000c 0006 ffd1 0022 000b 000e ffef 0002 0009 fff6 0003 ffed 0001 0010 0002 ffd9 ffe6 
0010 0000 fff3 ffe5 ffe9 0003 fff0 fffa 0000 0000 fffc fff9 000a fff3 0000 fff0 ffe6 fffe fffd 0008 fff3 fff1 0001 000b 000e 
fffc ffe5 000b 000d 0016 ffdf 000b fff8 002d 0037 0001 001d fff0 001e 0017 fffe ffee fff3 0020 ffe7 ffde fffa 001e 0017 001c 
0037 fffe 0001 ffeb ffdb 0015 ffe8 0011 fffd fffc 0004 fffb 0026 000a fffe 0007 000f 0007 ffe8 ffeb 000e 000d ffea 0007 0000 
fff0 ffda ffcc ffdf 0007 0015 0013 0005 0002 0003 0006 ffd7 ffd1 0013 fff1 ffdb ffeb 0000 fff9 fffa ffd4 0007 000f 0018 0010 
0005 001c fffd ffef 0000 fff8 fff7 0019 0008 0000 ffe7 0000 0014 ffe3 0019 fffa 000d 0000 0006 0018 000c 0011 ffe0 ffea fff7 
0012 0006 0013 0020 fff6 ffb9 fff3 0001 0037 0018 ffe4 fffc ffee 0020 000c ffdf ffe8 ffea 000e 001c fff1 fffb fffa 0009 001d 
fffa 000d 000a 0001 fffa 0004 000d ffef ffef fffa ffe3 fff2 0015 0004 ffe8 fff4 0016 000d 000c fff1 000c 000a 0014 0014 0011 
fffb fffa fff0 ffed ffdd ffef ffe2 0000 001c 0012 ffdb ffea 000c 0010 000e ffe2 ffe0 ffed 0020 0009 ffe6 fff1 0003 0007 0009 
fff9 0005 0000 ffed ffee ffee fff6 ffe8 ffef ffe4 ffd8 fff4 fffa 000c ffff ffdf 000e 0008 0009 fff7 fff9 001f 001f 000d 000e 
000c 000b 0031 fff1 ffe7 0006 0001 0003 ffe1 ffdd fffd 001e 000c ffdb ffd7 0009 001f 0026 fff0 fffb 0007 001e 000a 0015 0009 
001f 001c ffd9 ffd6 ffe4 0013 ffff 000a 000b 0001 000c 0000 fff9 ffdb 000b ffd8 fff9 ffe9 ffd3 0015 0003 0009 fffe ffff 0016 
fffa ffff 0001 fff5 fff7 0000 ffed fffa fff6 fffe fff4 fff0 fff7 ffed 0000 0000 0006 fff5 fffd fff8 fffb fffb fff8 fff2 0000 
fff3 0003 0006 fff1 0009 fff3 fffe fff2 0002 000c fff0 0002 fffa 0007 fff6 fff4 0006 0005 0007 0004 0004 fff2 fffa fff6 fff8 
000d fff1 fff6 fff4 0008 fff7 fff4 0004 fffc fffa 0000 fffc 0000 fffa fff7 ffff 0000 000a fff1 fffb 0006 fff0 0009 0000 0008 
0008 fffc 0002 fffc ffef 0007 fffb fff6 fff2 fffa fff8 0001 0004 ffef ffee fffe fff4 0004 ffe7 fffb 0005 0000 ffed ffe8 fff2 
ffe8 0005 fff8 fff5 0001 fffa fff0 fffb fff6 fffb fff0 fff6 fff9 fffc fff3 ffec 0000 fffc 0000 fffd fffb fff7 ffec fffa fffb 
0006 fff5 0003 fffc fff7 fff3 0000 0000 fff2 fff2 0000 0000 0003 fff3 fff8 fff5 0004 fffb 0006 fff9 fffc 0005 0006 0000 fff9 
0003 ffff 0000 0004 fff7 fffb fffe 0005 fffd fff1 fffd fff1 fff5 fffc fff8 0009 fff2 fffd 0001 fffa fff3 fff7 0003 fff1 0000 
fff4 fff0 fff4 fff7 fffb 0000 fff9 0003 fffb fffb ffef ffe8 ffff fffc 0008 0000 ffef fff9 fffa fff7 fff4 0007 fffb fff9 0002 
fffc fffc 0000 fffc fff3 fff5 fff6 fff8 fff7 fff2 fff9 0007 000e fff9 fff2 fff5 fffe 0000 0007 0004 0004 fffd fff7 0009 0004 
fff7 fffe 0006 fffb 0004 0000 fff9 0004 0008 fff1 fff7 0003 fff4 fffc fff8 0003 0009 0001 fffb fffe 0007 fff9 fff8 ffff 0005 
fff3 fff6 0001 fffb fff4 fff8 fff7 0002 fff8 0000 fffa 0006 ffe7 fffd 0000 fffa 0003 fffb 0000 0002 fffc fffd 000f 0003 fffd 
fff2 fff1 0005 ffef 0006 fff4 0000 fff4 0000 0000 fff8 fff1 0005 0008 0005 fff9 0000 ffff ffff fff3 fff5 0007 fff9 fff9 fffb 
0000 ffec 0003 0001 fffb 0009 0000 ffff fff3 ffef fff8 fff4 fff4 0001 fffd ffef fff3 fffc fff9 0001 fff0 0006 fffc 0007 0001 
fffc 0008 0000 fffe 0001 fffd 0005 fffe fff2 fff2 fff2 fff4 fff4 fff4 fff8 fff7 0000 0003 fff2 0004 0000 0000 ffff fff2 fffd 
0006 0007 fffa 0001 fff4 fff0 0002 0000 0000 0009 fffe 0004 0003 fff0 ffff fff1 fff7 fff2 fffd 0003 0007 fff5 fff3 0001 0008 
0008 fff8 fff4 0000 fffd 0007 fffa ffff fff6 ffee fff7 0007 fffb 0007 fff5 0007 fff2 0007 fffe 0005 fff3 fff4 fff2 0001 fff4 
fff8 0009 0006 fff5 0006 fffa fffd 0005 0005 fff9 ffff 0008 0004 0000 0000 fff9 0005 fff4 000b fffe fffa 0001 0000 0000 fff9 
fff5 fff5 0002 fffe 0008 0009 fff6 ffff fff1 fff8 0003 0006 fff6 0002 fff9 fff2 0005 0008 0007 fffa fff6 fff3 0006 fff5 fff1 
0001 fffa 0003 fff8 fffb fff9 0006 fffa fffe 000c 0002 fffa fff2 0009 0002 fff5 fff4 fff2 0002 fffe fff9 fffa 0002 000a fffa 
ffff 0004 0000 0003 0003 fff5 fff1 ffff fffe 0001 0008 0006 fff7 fff6 0005 fffd 0003 fffd fffd 0001 fff5 ffff fffa 0004 fff6 
0004 0009 0000 0006 fffc 0001 fff6 fff6 0003 0006 fffd 0002 fff6 fffd 0000 fff5 fff4 fffe fff2 fff6 fffa fff7 fffd 0000 fffe 
fff6 0009 fff1 0004 fffa fffd 0002 fffd fff2 0007 fffb fff3 fffa fff1 0001 0004 0007 0004 0005 fffb 0004 ffff 0002 fff4 0003 
fff1 fffe fff5 fff5 0008 fff2 fffd 0002 0002 0007 fff7 fffe 0002 0006 0000 fff6 fffb fffa fffe 0001 fff8 0002 fff4 0007 fff8 
0000 0005 fffb ffff 0001 0000 fffb 0005 fff4 0000 fff4 000a 0004 0000 000c 0004 0006 fff2 0009 0001 fffb 0001 fff7 fff1 0000 
fff9 0005 fff3 fff1 0007 fff2 fff3 0009 fff3 0009 fff9 0009 fffe fff6 0008 0005 fff8 fff7 0006 0005 fffc fff1 fff6 fffc fff1 
fffb fffd 0001 fffe fff5 fff7 0007 fffb fff1 0009 0007 0003 fffc fff2 fff6 fff5 0007 fffd 0005 fff5 fffc 0004 fffa fffe 0005 
0005 fffc fff8 fffb fff6 0003 0001 0005 fff5 fffb fff5 ffff 0001 0002 fff3 fff9 fff9 fffa 0009 0008 ffff 0001 0000 fffe 0005 
fffe fff6 ffff fff1 fffd 0002 0000 fffa fff6 fff4 fff6 fff3 fff5 fffe 0007 fffc fffd fff6 fffc fffa 0001 0002 fff5 0004 0005 
0001 fff6 fffe ffff 0000 0003 000b 0004 0000 fff6 fffd fff5 fffc 0008 0002 0009 fffe 0008 fff5 fff3 fffc 0004 fffd 0008 fff1 
fffa fff7 fff6 fffc 0005 fffe 0004 0004 fffa 0005 fff1 fff1 0006 fff4 fff9 fff7 fff5 0003 0003 fffa 0000 fff9 0000 0006 fff6 
fffb 0001 fff6 fff6 fffd fff8 fff5 fffc fff6 fffc fffc fff4 fffb fff1 fff5 fffe fffa fff8 fff1 fffe 0006 0001 0007 0004 fffc 
fff2 fff1 fffc fffb 0003 fffa fff8 fff9 fffc fff7 0001 0008 fff3 fff6 0001 fff3 0006 fffa ffff 0001 0000 0002 0002 fff7 fff7 
0024 0017 ffee ffcf ffdd fff2 fffb ffed 000a 0000 0004 0013 ffec 0010 0005 fff6 fffb 0015 000e 0002 ffe5 fff6 fff5 000a 0031 
ffd7 0011 0002 0016 0019 0004 0000 0015 0005 0022 0003 000d 0004 001b 0016 0001 0000 0008 fffb 001d ffed 000a fff4 fff3 ffeb 
ffd4 ffe0 0018 003a 0000 ffe0 fffc fff9 0020 0012 fffe ffea ffff 000e ffed 000d 0007 fff4 000b ffe8 0018 0015 ffe4 fffd ffca 
ffc4 ffd8 ffd7 ffed ffee ffee 000a fffe 0008 fffd 0017 fffa 0001 000b 000f 000b 0005 000d fff8 ffe9 0022 fffc fff1 0008 fff5 
ffe0 ffbf ffb7 ffdc ffea ffee 0001 000a fff8 000e ffff ffec fff6 fffc 0013 0028 ffed ffe6 0000 0007 001d 0014 0002 ffe7 0003 
0004 0003 000c 0015 0000 0016 000c 0005 0002 0012 0005 0000 ffe9 0006 0010 0006 fffe ffec 000a 001a ffec fff7 ffff fffd fff8 
000b 0019 001a fffe ffef 0030 0012 0003 ffce ffe6 0031 fff7 0019 0005 0003 ffd9 ffef 000f 0001 0002 ffeb fff9 fff4 0025 001d 
ffee fff0 ffd8 ffe1 ffe8 fff8 fff2 fff0 fff8 0014 fff8 0011 ffec fff2 0009 000b 001c ffee fffd 0000 0009 0001 ffe2 000f fff4 
0032 002c 001a ffc4 ffc6 002d 0008 0006 0005 ffe9 001d 000b 0016 0016 0007 ffdc fffa 0000 fff6 000a fff2 0013 0006 ffff 0000 
ffde fff9 0000 ffee 0014 fff8 0007 fff9 ffe7 0012 fff6 fff8 0016 002a 001d 0000 0003 000f 0018 000e 000a ffd5 ffed 0028 0017 
000a 0007 002b 0002 0013 0022 fff8 0012 0003 0009 0012 0014 0045 0004 ffeb fff5 001c 001a 0035 ffee 0006 001f ffda 0026 0019 
ffef ffef 000c 0010 0012 ffea fff5 000b 0020 0016 ffee fff8 0000 0017 001a 001a 0012 000c 0015 0005 000f 0012 0001 0010 fff5 
0006 0004 001c 0003 fffe 0023 000c 0011 ffea 0018 000c 0022 fff6 ffe9 0002 fff1 0018 0022 0005 fffc ffe9 fffb 000f ffff 0000 
fff2 ffe3 fffc 0009 ffed 0004 0000 0005 001d 0003 fffe ffff ffe5 fff7 fffc 0009 fff8 fff7 ffe9 fffe fffe 0007 000b ffed 0009 
ffce 0012 000e 0011 0005 ffd9 000e 0026 0009 fff6 ffee 000d 0001 fff3 0007 0011 000d 000a ffff 0000 000d 0010 fff2 fffa fffa 
0018 0018 fffc fff9 ffc4 000c 0005 0003 fffd ffe9 0001 ffe9 ffe3 0015 001e 0004 0003 0002 0013 0001 fffb fff3 ffdd 0013 0003 
0016 0018 0029 0001 ffcc 001e 0000 fff9 ffc4 ffe1 fffb 000d 0002 ffe6 ffe1 0001 0024 fffc fff7 fff7 ffe8 0005 fff9 0013 0033 
fff2 0004 0010 0016 0033 0005 000a 0002 0001 000b 0004 0001 fffa 0011 000a ffdd ffd6 fff0 0013 fff8 0012 000e 0008 0002 0009 
0013 fffb ffe7 fff7 ffe9 002a fffd fff5 fff4 ffdb 0000 002b ffe7 ffff fffa ffe8 0006 0004 ffe7 000f 0013 000d ffc8 ffa4 ffdd 
ffbd fff4 fffe 000e ffe6 0018 0005 0028 fff2 ffae fffd ffe1 0022 ffee ffcf 0014 000c 0022 fff8 fff5 002e 0025 ffea fff0 ffff 
001f 0009 0009 ffe2 ffef 000b fff7 ffbb ffcd ffff 0003 ffe2 ffda ffed ffe5 001f ffea fffb 0009 ffef 002e fffb ffee ffd8 fff3 
000b 0015 0016 000e 0014 fff9 000b 0002 0002 000b fffa 0004 ffff 000d 0025 fffe fff2 ffe4 fffb 0021 0000 0006 0005 0008 000d 
000a 000a 0003 fff0 0001 ffe8 0000 ffe9 0002 fffc ffe5 0008 fff2 0012 fff5 fffa ffef fffa 0028 ffe2 0000 0020 001f 0043 003c 
0016 0009 001f 0002 ffda 000c 0019 ffff ffcc ffdc 0014 001d fff8 ffda ffe8 0019 0027 ffe1 ffe3 ffd5 0019 0017 ffe0 ffe2 ffd6 
ffe5 ffe8 0017 0021 0012 0001 0013 0017 0025 001c ffeb fff3 ffdb 0003 000a ffd3 ffd6 ffdf fff7 0001 ffe3 ffe4 ffff 0010 0035 
0015 fffb 0005 fff7 fff3 0004 ffeb 0002 ffce fffc 0006 0000 0012 ffdd 0022 0009 001c fffb 0000 001b fffb 0010 ffe7 000f 002c 
0002 fff7 fffb 0006 fff9 ffe3 ffc9 0002 fffa 0015 ffb4 ffc9 0014 0027 001d ffd4 ffc6 ffe8 0037 0027 fff1 001f 001c 0017 fff6 
fffb fffc 0019 fff5 0022 0014 ffff 0002 fff9 0005 fff8 ffe1 0006 0008 001a ffef 0000 fffc fff4 001f 0012 0030 000b 0003 ffe2 
fff7 000a 0002 fffc ffff fffb 0013 001d fffc ffeb ffe6 000b 0012 fffe fffc ffbf ffd3 fffd 0017 0012 0007 000e 0024 0018 0000 
fff1 0019 000f fff9 000b 0005 0021 0001 0002 fff2 0003 fff9 0003 fff4 0010 ffea 0005 fff5 fff9 0011 0027 0028 0018 001e 0015 
000a 0004 ffe7 0003 0019 0000 fff0 ffee ffee 0013 0015 fff3 ffe5 0006 fff6 fff4 ffff fffb 0010 000f 001a 0022 0002 ffd9 fff2 
0037 003c 0037 001e 0005 002f 001e fffb fffd fff8 0030 0012 fff7 ffe2 000d ffdf 0009 ffe5 fffb 0007 fff2 fff2 ffde fff8 000e 
ffed 001c 000c fff5 ffe5 0019 fffc fffb ffca ffc6 0007 0005 ffee ffef fffe 0009 0028 001e 0001 fffe 0002 0002 0005 ffec 0000 
ffd8 ffd3 ffdb 0011 003c fff5 000e 0001 0000 0047 0013 fffd fff8 fffb 001a 001f 001e 0012 0000 fff6 001d fffa 0015 001b fffc 
ffe7 0000 fff1 0001 ffeb fff6 0013 ffff fff5 fffb 0000 0019 fffb 0000 ffee 0000 fffb 0006 fff5 0004 001d ffef ffce ffea ffcf 
ffd8 000b ffcc ffe3 ffd5 000c 0004 0022 fff4 ffc4 000c fff8 0025 0003 fff4 002a ffee fff4 0007 ffe1 0025 0012 ffca ffd8 ffd1 
002f 000f 0016 ffad ffd6 000c ffe5 fff4 ffc8 ffd7 0000 ffb4 ffd9 0012 0011 0014 ffca ffd6 fffd 000d 0015 ffed fff0 fffe 0006 
ffde ffcc fff4 0000 0013 ffe9 0005 000a 0009 0017 0007 0018 000b fff1 000e 003f 001a 0007 0004 fffe 001a 0018 000f 0006 000b 
0000 0034 002f 0036 0003 0006 000c fff2 fff0 ffe5 0016 0005 000f 0039 ffea ffe7 fffe fffb 0035 000f ffe9 0003 ffd7 fff3 0000 
000c fffd 0011 000d ffed 0007 0015 fff1 ffdd ffdf 0014 fff7 ffe5 0000 fff4 0008 001a ffe1 ffe6 ffe4 0012 ffed ffd6 ffd7 ffdc 
ffdf ffed 000b 0000 0000 fff4 fffb 0010 0031 0015 0005 0012 ffff 0019 0025 ffdc ffee fff1 000e 0007 0012 0009 0007 0015 000d 
0009 ffe9 fffd 0007 ffda 0002 0001 0022 ffc3 ffe9 fff8 fff4 0018 000a 0006 0016 fff6 0000 0001 0009 0004 ffe5 ffd7 fffd ffe9 
ffeb ffd9 fffd fff0 fff0 0023 ffe1 0017 0016 0015 0022 0009 0034 0020 fff5 ffe4 fff8 001a 003e 0009 ffe9 0006 000a 000e 0027 
ffd9 fff6 fffd fffb 0013 000f 0001 fffb 0004 0008 0025 0016 fff0 fff8 0010 0004 0003 0011 0011 0000 0026 0020 fff2 0019 ffe9 
ffde fffb fffe 0003 000b 000d 0010 001b 0014 fff4 001d 0025 002f 0001 0006 0010 000d 0023 fffe 0003 0004 0010 0010 001e 0011 
ffde ffff 000d 0005 0016 0000 002c 0004 fff7 fffe fffe 0013 fffe fff8 000b 001d 0011 0000 fff3 000b 001b 0020 0023 0004 0015 
ffee 0004 fff1 0008 fff6 fff1 000c ffef fff2 000d 0004 0019 ffeb ffeb ffe9 fffb 0003 ffea fff8 001c 000c 000c 0016 ffe5 ffe7 
ffdf 0023 0002 0008 0023 fffc 001e 0026 000a 0025 000b 000a fff2 ffea 001e 0014 0004 0007 0003 ffed 002b 0020 0009 0001 fffe 
ffee 0003 fff6 0005 0000 0016 0000 001b 0019 ffe3 0013 0003 fffe 0004 0014 ffef 0005 fffd fffa fff3 004c 002f fffe ffd9 ffd4 
fff5 0004 fffd 0023 ffd5 fff3 ffec 0001 000a 000a fff6 0004 0009 ffe7 ffea 0005 000b 0004 fffa 0017 ffe9 fff3 ffde ffe6 002e 
ffff fff3 ffda fff4 fffe 0008 0017 ffe1 000a 0010 0014 001a fff8 fff3 0032 fff6 fff2 fffe ffef 0012 ffe8 0009 0024 0034 0054 
000b ffe1 fff9 0013 ffff ffea 0005 002a fffa 0003 0034 0021 fff5 ffec 0010 000f ffdf fff1 fff1 0022 ffd1 fffd 0039 0009 0020 
0009 fff3 ffe2 ffe8 0006 000c 000e 0006 0008 ffef 0009 0002 0029 002a fff4 0000 0002 fffc 000a ffe9 fff9 0027 0024 001f ffeb 
0002 000f 0006 0019 001d 0000 0004 fffe 0004 000c 0011 0002 fff4 0003 fff4 fffd 0017 0017 0012 0000 fffb fffd 000a ffdd ffdd 
0024 000b ffe3 ffd8 000e 0009 fffa fff4 ffef ffdd ffe5 fffb 0039 000a 000e 0014 0010 0019 ffe3 0002 ffe2 ffbb ffbd fff1 ffdc 
ffe0 fff7 fffe fffe fff3 0012 0024 0014 0006 0004 000c 000f ffec fff4 001c ffde ffff 0005 001f 0020 fff5 fffc 001d 0031 0040 
000a 0000 000a fff5 ffdd ffe0 ffd4 0012 0010 fffb 0007 000a 000e fff9 0007 0022 000e 000f 0012 0002 0001 fffd 0002 ffe0 ffcf 
fffc 0004 0007 001a fff7 0005 fffa ffe5 fff9 0009 0002 ffeb ffdf 0015 ffdb ffed 0014 0015 0006 ffe4 000e 000c 0031 0004 0000 
000c 0013 0026 ffff 0001 ffe1 ffff 001b ffe7 fff1 ffcd fffc 0009 0003 fff1 fff6 fff2 ffea ffc5 ffde fff3 ffb2 ffb0 ffe6 ffcf 
0017 ffef fffa 0003 fffc 0008 fffe 0001 0007 0011 000f 001e fff3 ffe3 ffee 000b fff2 fffa fff8 0021 ffe3 ffc4 ffdc fff6 0019 
000a 0016 0006 0005 0010 fffa fff9 0002 ffe3 0000 ffe8 000b 0000 fff4 ffeb fff0 002a 0011 0005 fff8 fff4 ffd7 ffb5 ffc9 ffe2 
fff9 000b 0000 fffb 0018 000f 0002 0000 0001 000c 0013 0008 0017 0012 fffa 000a 000d 0001 0005 0005 fff2 ffca ffc1 ffcf fff0 
0002 fff1 fff5 0010 fff3 0008 0001 0003 0015 0014 0000 0005 0008 0001 0000 0004 000b fff3 fff8 0015 ffe3 ffde ffe8 000d 003c 
0011 0003 fff0 fffb 000e 0000 0012 fff3 0019 0004 0019 0012 000e 001d 0038 0010 fff0 0021 0024 fffb ffec fff2 fff7 ffea ffda 
fffd fff7 fff1 ffdd fffb ffe3 ffdf ffc4 ffb1 ffe2 fffe 0019 ffde ffd5 ffc9 002b 0016 ffed ffe0 fff4 0006 fffb ffff fffa fff3 
0014 0014 0019 001c 0006 0016 ffeb ffed 0007 fffc 001d fff2 fffc 001a 0017 fff8 ffec fff8 0006 0004 fff4 0007 ffe3 ffee 001a 
002c 0027 fff4 fff5 ffdb 0023 0027 fff6 fffc ffd5 001c 0031 ffea fffc 0004 fff4 fffc ffdf 0006 0009 ffff ffec ffc6 0009 ffd7 
001b 0016 ffcc 0012 ffef 0015 fff6 0006 ffc2 ffd6 ffe0 0009 002c fffb 0000 0021 002d fff7 fffc fff0 0036 0022 ffe4 0001 fffc 
001b 0022 0007 ff92 ffda 0027 fffa 0007 ff9e ffc4 000c ffd7 000d fff1 ffd9 0008 fffc 002a ffe6 ffe9 001a 001c 0031 000e 0004 
ffeb fff5 0016 0022 001a fff5 0009 0008 001d ffef 002f 0019 000a 001b 0017 0010 0010 fff4 0002 0006 0001 fff2 fff4 fff2 fff7 
fff7 0002 fffe ffdf 0013 0022 0042 002f ffea fff5 002a fff1 0012 fffb ffb5 ffd0 0004 002d 0022 fff5 ffdd 0000 000d 001f ffec 
0011 fffe fff2 fff9 0016 000f 000b ffde ffdb 000a 0000 0003 ffeb 0005 0005 0029 001e ffeb 000c ffe7 0019 fff9 000e 0005 ffda 
000c 0028 003c 000e ffee 0009 000f 0019 0001 fffd fff7 0002 ffdb 000a 0032 ffde fff0 fff3 000c 0006 0019 0002 fff8 0002 001b 
002d 0001 fffa ffe3 fff0 fffa ffe0 ffd9 ffa5 ffe9 000e 0001 0012 ffc5 ffc1 001c 0009 0014 0007 fff0 0004 fff9 0019 fff0 fffa 
0006 000f 002c ffef fff7 0083 004b 002a ffe7 fff9 ffd6 ffde 005e 0031 0007 ffc8 ffbb fff2 0018 0018 ffe2 fff1 ffe3 ffe5 ffe2 
0016 0009 001a 0014 ffff 0010 ffef 0023 0012 0017 ffe8 ffe6 fff8 fff8 000f fff5 0017 fff1 0000 001a fff6 0020 ffed 000d fff9 
0009 001a 000d fffd fffe 0037 003a 0008 0000 fffa 0000 001a 0026 fffb 0013 ffea ffcd fff9 fffd 0007 ffe4 fffd fff3 ffe3 0007 
0002 0014 0025 fff6 0011 001c 001b 0004 0000 0005 0007 0008 0004 0003 0011 0012 ffef ffe6 ffe4 fffe 0000 fffe 0004 ffea ffe9 
0004 001a fff4 0002 ffd3 ffe5 fff7 fff9 0026 ffe5 fff9 0002 fffb fffd 000a fff5 ffee ffe7 0013 fffd 0001 fff4 fffd fffb 000f 
000d 001b 003d 0007 001f 000d 0013 0002 000c 0052 001c 000d fff5 fffb 0000 0032 0004 ffe4 0024 0002 000a ffde fff9 0004 fff6 
ffeb fff6 fff6 ffee 0013 000d 000a 001b ffd9 0005 001a 0010 0008 0001 ffdc 0014 ffe5 001b 000d 0001 ffd4 000d 0026 fff7 000a 
003f 001d fff1 ffd4 fff2 000a ffe1 0005 000b 000a ffff fff1 ffec ffe8 0018 fffb fffc fff4 fff5 ffeb 0006 fff2 0005 0007 000d 
004c 001f 0018 000b 0018 0025 fff7 ffeb fffe 0005 0016 000b ffea 0004 0003 000a 001d 0003 ffd8 ffe9 0019 0015 fff4 ffb7 ffc2 
0016 002e 0024 002a 000d 0013 0000 0021 0021 001b ffff 000c 001b 0003 000a 000f 000e 0007 0016 000c 0024 ffd5 ffe1 fff6 ffee 
0023 0039 005d 0040 0014 000b 0011 001c 0000 ffe8 0005 fffd 0005 0000 fff3 0001 0000 fffe ffff fffd 002f 0014 0006 fff6 fff9 
fffe 0006 ffd8 ffc8 ffc4 fff6 0010 0010 0009 fff7 0004 fff4 fff2 fff7 0018 0010 fffe fffc 0001 001d fff8 fffa fff5 0018 001f 
fff9 fffe ffff 002a 0038 ffda 0012 0038 0015 000b ffdf 0017 fff1 000d ffe5 0004 ffff 0001 002e ffcf fff4 ffe5 0011 0005 0001 
0017 0013 000f 0017 0052 0001 fff8 0011 0012 002f fffb fff8 000e 0001 0018 fff7 000a 0010 001a 0025 fffb 0014 0003 ffd5 0006 
ffe9 ffad ffd5 ffd9 ffed ffeb fff9 fffd 0002 0008 ffd7 ffec 000a 000a 0001 ffeb ffe7 ffd7 0007 0030 ffdf ffee 0001 001a 0031 
000d 0014 fffd 0010 0005 000a fffb 0016 fffc 0000 0026 fff9 fffc fffe 0009 001d 0004 0010 001a ffdc 000c 001c fff4 ffdc fff2 
001c 0034 001a 0003 ffec fff2 0014 0009 0007 fffc ffe8 ffff 0012 ffeb fff8 0011 0000 0012 002c 000a ffc9 001c 0032 fff7 ffde 
0013 fff7 ffe6 fff7 ffe9 fff3 ffe7 ffe5 fff6 000c 0013 0015 fff9 0005 fff4 fff9 000f 0015 fff6 0007 fffa 0000 0000 fff9 ffdd 
0001 ffea ffdd ffdf fff3 fff9 000d 000a 0006 000c 000e fff3 fff8 fff1 0001 fff8 ffeb 0025 0019 000f 000a ffed 0018 0000 0000 
0012 0018 ffff ffee fff0 ffdf fffe ffd1 fff1 fffa 0000 ffe0 ffe3 fff6 0027 fff4 0000 0005 000a 000b 0018 0025 0029 0016 ffee 
001e fffd 0000 0010 0000 0024 ffe3 ffd6 ffe9 0025 001a 0009 ffe3 fff3 0012 0000 000e fffd ffea ffe8 0019 0015 0007 ffbe ffe0 
ffd9 ffe2 ffe7 ffed ffd6 0018 000a ffff fff6 001b ffed fff8 fff7 ffe8 0002 000a 0011 0007 0010 0038 0007 0012 001b 000e 0016 
0001 0007 fff9 0000 fff2 fff6 fffb 0005 fffe fff6 0009 0007 fffd 0007 0001 fff7 fffa fff1 fffe 0000 0009 0001 fff7 fff2 0000 
0005 0006 0006 fff6 fff7 0005 fff6 fff3 0000 fff2 ffff 0003 0002 fff3 fffa fffe fff7 fff5 fff8 fff2 fff9 0000 0005 fff7 fffb 
ffff ffff fffe 0008 fff9 fffb fffd fff6 fff7 fffc fff6 ffff fff9 fff3 0003 0005 fffe fff5 fffe fff3 0006 fffd 000c ffff 0008 
fffe fff7 fff9 fff9 0005 0007 0009 0007 0007 0005 fffd 0002 fff5 fffe fffb fffe fff9 0000 0008 fff7 fff9 fff7 fffc fffb fff7 
fffd fff5 0009 0008 0008 0007 0003 0008 fff7 0003 fff8 000a fff6 0006 fff8 0005 000b 000b fff2 0000 ffff fff9 fff7 fff3 fffd 
0005 0004 fffd 0008 fff5 fff9 0005 fff5 fff6 0007 fffd 0005 fff2 fff3 fffe 0004 fff9 fff6 fff2 0008 fffe fff7 fff2 0002 fffe 
fffb 0000 0000 0003 fff5 0008 0006 fffc fff4 fff4 fffc 0003 0002 0006 fff1 fff3 0007 fff2 0001 fff4 fffa fffc fff9 0005 fff6 
0004 fff9 fffc 0006 fffc 0006 0006 fff6 0003 fff3 0003 000c 0007 fff8 fffb fff4 fff7 fffa fff4 0000 0004 0003 0009 0002 fff7 
ffff 0002 fffb fff2 fff7 fff4 fff8 fff5 fff6 000b fff3 fffe 0007 fffb 0004 fff5 ffff 0000 0008 0001 ffff 0006 fff4 fff2 0001 
0000 fff8 ffff 0003 0007 fff4 fff1 fffb fff6 fff4 fff6 fff5 0005 fff7 fff5 fffb fffe fff4 0001 0003 fffb 0007 0006 0008 fff7 
000a 0006 fffa fff3 0007 fff8 fff5 fffe fffe fff3 0000 fff7 fff5 fffc 0003 0008 fff8 fff7 fffc fffa fff5 fff4 fff1 0009 0000 
fffe fff9 fffd fff1 fff5 0000 fffe 0003 0009 fff4 ffff fffd fff1 fff1 fff8 fffa 0004 0005 fffb fff6 fffd fff8 fff3 fff7 0000 
0003 fffa fff4 0008 fff9 0008 0008 0000 ffff 0005 0002 0009 fff5 fff2 0004 0009 0003 0002 0002 0007 0007 fff8 0000 fff5 0002 
0004 ffff fffe fff6 fff8 fff7 0004 0004 fffc fff3 fff2 0002 ffff fffa 0008 0001 fff3 0007 0007 fff8 fff3 fff2 fff2 0009 0008 
ffff 0004 0006 0000 ffff ffff ffff 0003 fff8 fffc fffe 0009 fff8 fff2 0001 fff5 0000 fffc fffb 0002 0003 fff3 0000 fffe 0005 
fff7 fff5 fffa 0008 fffc 0005 fff8 0001 0004 fffe 0007 0007 fff2 fff9 0003 fff9 fff3 ffff 0008 ffff fffa 0009 fff5 fffb 0008 
0021 0020 0021 0007 ffe7 fff2 0005 0008 ffea ffed fff5 0002 000e ffff fffe 0008 001e 0010 0010 0009 0006 0002 0020 ffff ffe5 
ffc1 fff5 000a 0025 0028 ffe4 ffd2 ffed ffd9 ffc7 ffd6 ffe6 ffe0 ffe2 0013 fff2 ffef fff4 fff3 fff7 000a 0008 0019 0017 001c 
ffea 0013 001e 002a 0023 fff4 0004 000a 0029 0006 ffc9 ffd7 0005 ffd0 fffa ffeb fff7 fffe ffdd ffeb 0000 0025 0001 000a ffe6 
ffef 0014 fff8 ffee fff4 001c 001c 002c 0010 0026 fff5 ffe5 0002 000e 001c ffc7 000a 000a 0011 0004 0026 0011 0010 fff8 0005 
0002 0005 ffe1 ffeb 0000 0016 fff9 000a 0017 0019 fff7 ffcf 0013 001a 0010 0013 ffe5 ffd3 0004 fff0 003c 0032 fffc ffec ffe5 
fff4 0003 0017 0014 0018 fffc ffe9 ffe7 fffa ffea ffe9 0001 fff8 0005 0001 ffeb 0003 0009 ffde fffc fff2 000f 0000 0000 0009 
ffe7 ffef fffd ffed ffce fffa 0011 0013 0007 001f 002b 003a 000a fff6 0015 0021 000d 0012 0045 002f ffec 0010 002e 0033 ffff 
0011 0017 0004 fff7 fffe fff1 0000 fffa 000e 0033 ffdc fff0 0017 001b 0020 0015 001f 0003 0003 0027 001c 0021 0015 0000 fffa 
0015 000e 0026 fff6 0000 0009 0000 0011 fff9 ffd7 0021 0010 fff4 ffeb 0003 ffda fffe fffb ffff 001a ffe6 fff9 ffed 0000 000c 
0005 fffd 002a 000d ffff ffff 000a 0019 001b fff5 ffe6 fffe 0046 fffb ffee 0007 0000 000f 000c 0026 000a 0014 fffb fffe fffc 
000c ffcf 0002 fff5 fff7 000b ffda ffdd fff5 000a 0023 0010 0024 fffb ffda fffc 0006 0000 ffff ffd7 ffad fffd 0000 0011 0013 
ffe0 ffe5 000a 000c 0010 ffee fff3 ffe6 fff4 fffe ffe6 ffd7 fffe ffea ffee fffb ffff 0000 0006 fff2 fff2 000b 001d 0035 000a 
ffe7 ffde ffeb ffe5 0005 ffed ffee ffe9 ffe7 fff6 0002 0010 ffec fffd ffed 000a 000a fff5 fffe ffed 0000 0018 003c 002a 0005 
fff5 ffe4 ffe2 ffec 0000 fff3 fff7 ffea ffe4 fff5 ffe7 fffb fff6 fff6 fffc ffe9 fff7 0002 fff0 fff4 fff6 0011 000d 0013 0005 
ffe0 000d 0012 000d 0013 fffd fff8 fffd 0006 fffe fff6 0000 fff3 ffde fffb ffe7 fff1 0006 ffcc fffa fff8 0000 0001 0000 fff9 
0029 0037 000e 0001 fffd ffeb ffe4 fff7 000d ffdf 0010 0006 0000 fff3 0014 fffd ffee ffdc ffc8 fff4 0013 0000 000a 000f 0027 
fff4 0009 fff7 0000 fffc fffc fff7 fffc fffd fffe 0000 0002 ffee 0000 fffe fff2 fff3 fffa 0003 ffe9 fffe fff0 fff5 fff3 fff7 
0001 0006 fff2 fffa fffd 0005 fffc 0002 000a ffe9 fffb fff9 000f fff5 0000 fff0 fff9 0004 fff3 ffee fff9 fffd fff6 0002 fffd 
0006 fff5 fff0 0009 ffed 0000 ffff fff6 0001 fff2 fffc fff4 fffa 0002 fffd fffb fffe fffb 0007 fffe ffea 0000 fff9 0008 0001 
0004 0000 ffef ffea fff5 0005 0000 ffef ffff fff2 0007 fffb fff8 fff2 fff9 fffe ffea fff4 ffef fff4 0000 fffa fff2 fffa fff0 
0001 0002 0000 fff5 fff1 fffd fffa fffe fff9 fffd fffb 000b fff6 ffff fff8 0000 fffe ffed 0003 000c 0002 fff8 fffb fff8 fff4 
0000 0006 ffff fff1 fffb fff8 fff8 fff7 fff5 fffd 0000 fffa fffc fffe fffd 0000 0008 fff7 000b 0000 fff4 0000 fff6 0003 fffe 
fff1 ffec ffff fffb 0006 fffc fff1 0006 fff7 fff4 ffee 0001 fff8 ffeb 0002 fff8 fff8 fff1 ffea 0009 0004 fff4 fff8 0003 fff2 
000c ffff fff8 ffec fff8 fff2 fff4 0003 fff1 fff8 fffe 0002 fff9 fffc fffa ffeb 0006 0003 0002 ffef ffee ffec fff0 ffee 0008 
fff9 fffb fff2 fffd 0001 0003 000e 0000 0004 ffff 0006 0007 ffef fffd fff3 fff9 fffd 0000 fff9 fffe fff5 fff9 fffa fff3 fff4 
0000 fff9 ffee fffe 0004 fff5 ffec 0000 fffd 0001 fff3 ffeb fff6 fff8 fff2 fff5 fff1 ffee fff5 fff8 ffec 0000 fffb fffc fff9 
fffa fff5 fffd fff3 fff7 fffa fff8 0000 fffd fff9 fff4 fffc 0005 ffeb fffd fff4 0007 fff8 fff9 fffc 0009 0006 0006 fff4 0000 
fff4 ffed ffee 0005 fffc ffed fff0 0004 fff1 0000 fffe fff4 fffb fff3 fffc ffee fff8 0000 fffd ffed fffd fff9 fff8 fff5 ffeb 
fff9 fff0 ffff 0004 fff6 fffc fffd fff6 0002 0005 fff2 fff1 fff1 fff4 0001 0004 0004 fffe fff1 fffb fff8 0000 fffd fff6 fff1 
fffa fffb ffff ffef fff4 fff8 0005 fff4 fff1 fff7 fff5 fff5 fffc fff7 0002 0003 ffed ffeb fffb fff4 fffa fffb fff9 ffe9 fff4 
fff8 fff7 0006 0000 fffb fff8 ffe9 fff4 fff6 ffed fff3 fffd 0007 fff9 ffe9 0000 fffe ffec fff3 fff6 fff2 0005 fff0 fffc ffef 
fffe 0009 fffb fffa fffa fff9 fffa ffed ffef fff6 fff7 fff1 fffb 0003 fff6 ffff fffa fff9 000c 0000 fffc 0002 fffc fff3 ffff 
ffc6 fff5 000d 0014 002f ffef 0006 fff5 0019 0023 ffdd 000c fff3 fff7 ffe8 fffb 0011 ffe2 ffb9 ffd2 003d fffc ffd0 ffd6 fff3 
0001 fff4 fff2 ffec ffd1 0013 fff6 fffe fff7 fff3 ffe8 ffef ffdf ffc9 ffe1 0009 0012 ffdc ffe0 fffe 001e 0006 0008 0014 0003 
0007 fff8 0011 fff6 0004 000b ffeb 0012 0009 0008 fff9 ffe7 fffb fffa ffea ffe4 ffe5 0012 0001 ffea ffd2 fff6 0028 0033 001b 
ffe8 0007 0029 002c 0035 ffe2 0013 0000 0010 0037 fff1 0021 0005 001f 0009 fffe 0037 0008 000c fff5 ffcb 0018 0005 ffef 0023 
fff2 0019 0029 002a 0012 fffc 0009 002b 0027 001e ffe9 000f 0010 0021 000d ffdf 0017 001b 0018 ffe5 ffd2 000a 0030 000f ffea 
ffff 000b 0009 000c 0018 000c 0014 001a 0008 fff9 0002 fff1 fff4 ffde ffcb fff5 fff6 0015 ffe5 0000 0034 001d 0000 000b 0004 
000f 001a 0007 ffe5 ffe8 0008 000b 0009 0004 fffc 0027 000e 0013 fff9 0009 003b 0022 0026 003d 0047 0014 fffb fffd 000d ffbc 
ffe6 0000 000c 0022 0016 fff5 fff9 0019 0026 fffe ffe2 fff6 0004 0036 fff7 fff8 fff1 0006 0005 000f fffe fffe 0020 0012 0017 
0020 000b 000f 0007 0019 0014 002d 002a ffe4 ffd4 0040 0023 000f ffd7 fffc fffb 0016 fffe 0014 0000 0032 001b 0016 fff3 ffe2 
fffa 0026 002e 0004 0009 0000 0022 0001 001c 0015 fffa 000d 0038 0001 ffde fff6 0015 fffc ffa5 ffeb ffe9 001a 0029 ffcf ffe8 
001e fffc ffd5 ffd3 ffdf 000e ffd5 ffd2 ffe9 ffca 0024 fffb fff7 ffe9 ffea 002f 002b 0000 ffe9 fff0 002c 0025 0024 0005 ffff 
fffa fff5 ffeb ffd9 ffeb 0006 ffff ffe9 fff5 ffef fff1 ffe2 fffa fffa fff2 0001 0000 ffed fff3 ffe6 fff8 ffe4 fff4 0013 0004 
001b 001b 0000 0002 fff0 0028 fff1 ffd5 ffdb ffce 0000 ffde ffc3 ffdc fff7 0045 0019 ffdd ffee ffff 0006 0008 0014 002b 000e 
0018 001f 0008 0001 0000 0025 000f ffe9 0009 0013 ffe0 0005 fff8 fffc fff7 001f 0010 0011 0007 fff7 ffed ffee ffd9 0001 0001 
fffd 0013 000a fffc ffe2 000e 0006 fff1 fff8 ffde ffe4 fffe 0015 0003 fffb fff8 0000 0021 0000 ffe6 ffeb fff1 001a 000e 0008 
0000 ffee 000e 0022 0016 000a 0010 0029 000e ffe4 001d 0006 0032 ffec ffd4 ffef 0015 002f fff5 fff5 0003 0004 0016 0010 002a 
000a fff9 fff3 fff0 0004 0002 0000 fff8 0003 fff5 fff8 000a 000a ffff fff1 fff1 0000 0005 0007 0003 0003 fff5 fff7 0004 0003 
0002 000a 000c ffff 0006 0009 0000 fffc 0002 0003 fffb fff5 fffa 000d fffc fff6 fff8 0000 0009 fffd fffe 0002 fff2 0000 0000 
fffe 0009 0008 0007 fffd 0004 fff5 fff7 0002 fff5 fff1 0001 0000 0007 fff7 fffe 0009 fff1 fffc 0010 fff7 fff2 fffd 0003 000e 
0000 fff8 fff5 0006 0001 ffff 0006 fff8 fff3 fff3 0000 0004 0005 fff9 0006 fff5 fff4 fffb fff3 ffff 0003 fff7 0004 0009 fff9 
000d fff9 fffb fffa 0007 ffff fff9 fff6 fff6 fffe 0004 0006 fffa 0006 fffa 0003 fffd fff1 fff7 0000 0006 fff9 fffc fffc 0000 
0009 fff7 0006 0004 fff9 fffd 0000 fff8 ffff fff2 fff3 0008 fffe fff6 fff8 fff9 0007 0008 fff7 0008 000a fffe fffc 0001 0000 
0002 fff3 fff7 fffd fffd fffa fff3 fff7 0005 fffb fff4 0008 0009 fff4 fff2 fff4 fff6 fff8 fff3 fffc 0004 0000 0006 0005 fff9 
fffe fffe fffd fffa fff3 fff8 000b 0005 ffff 0009 fff1 000e 000d fffd 0000 000b fff2 0004 fff1 0000 0003 0005 fffc fff6 0001 
fff9 fff7 0007 0000 fff9 fff5 fffe fff6 0001 0001 fffa fff6 0009 fff1 fffa 0008 0009 fffe 0002 0001 fff1 fff9 fffc 0007 0005 
0007 fffa fff8 0008 fff5 fffc 0003 fffd fff2 fff8 0004 0002 fffc fff9 ffff fff7 fff1 fff1 fff7 ffff fffe 0007 fff6 fff4 0002 
fff8 0002 ffff 0009 fff8 fff2 fff8 0008 0000 0000 fffb 0000 0002 0002 ffff fff2 fffd fff4 fff4 fffb 0000 0009 0003 fff8 0000 
fff8 fff1 0000 fffa 0007 fff8 fffc 0003 0001 0000 fff1 fff8 fff2 0005 0008 fffd 0001 fff8 fff9 ffff 0002 fffd 0005 fff7 0006 
fff1 0001 fff3 fff8 fff1 0005 ffff fffa fff9 fff9 ffff fff3 fff2 fffd fff2 fffb 0004 0002 0005 fffe 0003 000a 0004 0009 fff8 
fff4 000b fff6 0000 0006 0007 0000 0003 0004 fff7 fff4 fffa 0004 0008 0002 0000 0002 fff7 0005 0001 0004 fff2 fff9 fff4 0005 
fffa 0000 fff5 fff3 fffd 0005 fff5 fff3 fffa 0000 0007 fff3 fff3 0001 fff6 0003 0007 0005 fffe fff9 0002 fff8 0001 0004 fff6 
0007 fffd 0000 fffc 0002 0004 fffd fff1 fff5 ffff 0001 0005 0004 fff6 fff8 0009 fff9 0007 0006 fff5 0005 fff6 fffa fff2 0007 
0002 0000 fffb fff7 0009 ffff 0001 ffff fff8 0000 fffd 0005 fff6 000b fff8 fff9 0004 fff9 0008 000a 000c 0005 0000 fffc 0005 
0003 fffb 0007 fff9 fffa 0000 0007 0000 fff2 0005 ffff 0000 fff4 fff4 fff9 fff5 fffa fffd fff2 fff6 fff8 fff6 0008 0000 fffb 
0000 fffb fff9 ffff 0004 0003 0001 0000 0006 ffff 0003 0008 fffb fff4 0006 fff6 fff7 fffd ffff 0005 fff3 000a fffc fff9 fff8 
fff6 fffd fff1 0000 ffff fff4 fff3 fffc fff9 fff6 fff5 0008 fff7 fff1 0007 fff3 fff6 fffc fffb fff9 fffc 0000 fffc fff8 fffd 
0000 fff8 fffe 0009 0001 0000 fff7 ffff 0002 fff4 0004 0001 0007 0007 000c fffd fff8 fffa 0001 fffb 0009 fff3 0002 fff1 fffb 
fff8 fff6 fffa fffd fff6 0006 0008 0003 fffb fff1 fff2 0003 fff9 0000 0001 0006 0004 fff2 fff8 fff1 0004 fff7 fff6 0004 0001 
fff4 0004 fffa fff4 0006 fff1 0005 fffb 0005 fffb fff7 fff2 fff2 0004 fff3 0006 0003 0000 fff1 fff6 0008 0003 fff9 0001 0001 
fffc 000b fff7 000a fffb fffe 0008 fffb fffb 000a 000b 0005 0002 fff8 0001 fffb fffa 0000 0002 0000 fff5 fff6 0008 fff9 0000 
0002 0000 fff2 0007 fffe fff1 0000 0004 fff6 fffa ffff 0004 fff6 fff3 0009 fff8 0009 fff7 0000 0005 fffd 0000 0003 fffe 0005 
0000 fff9 fff3 fffd fff6 fff3 0004 fffe fffd 0001 0003 0006 0000 0003 fff7 0006 0008 0006 fffb 0000 ffff fff7 0002 fffa fffd 
0002 fff4 0000 fffb 0000 fff8 fffe 0000 fffe fff1 0005 fff9 0001 fff5 0000 fff8 0004 fff1 0004 0001 0002 0006 fff2 fff9 fffe 
fffd 0000 0005 fff1 0005 fffa fffe 0005 0007 0004 0004 0000 0003 fffb fff9 fff7 0008 ffff 0001 fffd fffb fffd fff7 0000 fff6 
0005 fffa 0000 0009 ffff fffa fff6 0001 fffe fff9 0000 0006 fff7 fff8 fff6 fff6 0008 0004 0000 0000 fffd 0003 fff7 fff3 0000 
fff3 0001 fff1 0009 ffff fffb 0000 ffff fff8 0000 fff9 fff1 fff5 0006 0000 fff5 fff9 fffd 0005 0000 0000 0002 fff4 fff5 fff7 
fff5 fff8 fffc fff1 0003 fffa fff7 0001 fff2 fff2 fff4 0000 0008 0001 fff5 fff1 fff5 fff4 0000 fff1 0003 fff7 fffd 0003 fffa 
0006 0001 0008 fff5 fff9 fff2 fff6 0000 ffff fff4 0009 0008 fff4 fffe 0001 0009 fffe fffc 0000 fff8 fff5 fff7 ffff fff2 0007 
0001 ffee 000b 0014 001f fff7 fff5 000f 0017 003b 0000 0006 002a ffea ffed 000a 000d fff0 0008 0024 ffe8 000e 0000 001d 001f 
0016 000e ffd7 ffcd fff3 0006 fff1 fffa ffff ffff 0006 0005 fff0 0014 0002 000b fffa fff9 fff7 ffd0 000f 000f 0015 fffc fff3 
0005 0007 fff5 ffd2 0012 0005 fff0 fff9 ffd3 ffdb 000d 000e 0006 0009 002e 0014 001e 0004 0012 0007 fff6 0019 ffe2 ffd5 ffd2 
0001 0011 0020 0016 0025 fff8 0009 0000 0001 0001 0000 000e fffa ffe4 ffe0 0001 fff8 0018 0003 fff2 ffde ffff fff8 0001 0015 
0005 0011 0032 0044 000a 0002 0012 fff2 fff8 ffd1 fff6 0020 ffed ffe9 ffe7 0001 ffe6 001a 000f 001e fffd ffce 0016 000f 0015 
ffee 000f 0005 fff2 fff9 0000 fff2 fffc 0009 fff5 ffec fffb fffc 0015 0018 0000 fffb 0004 0008 0001 0000 fffe fffb 0009 fff3 
ffed fff6 fff6 0029 0033 fff1 ffdc fff8 0036 0022 0004 0004 ffff 000b ffdb 0025 0010 0002 ffec ffca 0029 fffa ffff 0015 0035 
fffe 0004 0008 000d 001d 0000 000f 0005 0025 ffe8 0017 0006 000c ffe3 ffd7 0006 fff7 fff4 fff1 ffed ffdf 0004 ffef 0000 0004 
0025 0000 fffe 003a 003e ffe1 ffed ffdf ffe9 0034 ffe3 fffa fff2 000e ffe6 fffc fffc ffef 0002 0000 002e 0009 0010 0010 0014 
0013 fff7 fff9 0002 0011 fff9 ffea 0007 0012 0004 000d fff9 ffdd ffe6 fff4 0014 fff9 fff7 000e 0001 000b 000b 0006 ffe9 001c 
ffdf fff1 0003 0003 ffe5 ffe2 0008 ffd8 fff4 0007 001e 000c ffe0 000b 0023 0021 0009 0005 0014 0001 ffef ffd5 001e 0009 ffe1 
ffea ffe6 0003 ffdd 0001 ffff fffb fffe fff8 000d fff5 fffe 000f 0018 000d 0004 0009 0003 fff6 ffe6 ffed 0016 fff5 fff5 0003 
ffe4 0007 fffd fff6 fffb ffd7 ffde 0014 002e 0010 ffe8 ffed 0004 0021 0008 0023 fffd 0017 0009 0009 ffee 0002 0000 fff7 ffef 
fffb 0000 fffa 0001 fffe ffe1 ffef 0009 0006 0002 fff7 fff7 0013 0017 000b 0007 0014 000b 0015 0015 000c 0012 0001 0009 0019 
0006 0007 ffe4 ffe1 0012 0020 0000 ffec ffe2 fff4 0001 000a ffe6 fffb 000b 000d 0003 fffa 001a 0002 001c 0015 0000 0000 ffda 
0002 ffec 0014 0012 002f ffed ffe5 fff6 ffed fffc ffe4 0004 0014 0000 ffe7 fffd ffe2 fff9 fffa fffc 001d 0014 0012 fffa fffa 
fffb fff8 0002 fff9 fffc fff1 fff3 0000 ffff 0013 ffe6 000a 0009 fffa 0012 ffef 0000 ffe9 000b 0000 fffd fff6 0007 fffa fffa 
fff9 0002 fff4 fff6 fff1 0004 0004 fff5 ffec ffe5 fff0 fffb ffe1 ffec fff6 fff4 fff3 0002 ffd0 ffed ffe6 fffd fffb fff6 ffef 
ffdd ffed fff0 fff1 000f ffe3 0004 0004 ffdb fffc fff7 fff8 ffff fff9 0002 ffff 0011 0002 ffe5 fff3 ffe5 fff4 0011 ffec ffe3 
ffe0 ffe9 fff9 0005 fffc ffd9 fff0 fffe fff5 0008 ffed ffe9 ffef fff9 0000 ffea ffe6 0000 fffa ffe6 fff6 fff9 ffdf 0000 fff1 
fff1 ffe8 ffe7 001d 0002 fff2 fff3 fffb 000c ffe2 ffe8 0011 0000 0017 ffe4 0000 0002 0001 fff3 ffed fffe fff5 fff6 fff3 fff3 
fffd fffe fffb fff1 ffea fff9 0000 ffef ffdd ffe6 0001 ffe7 fff1 ffda ffde fff9 fff1 fffd ffeb ffed fffb ffed fff3 0013 000a 
ffeb ffe8 ffe0 fff6 0020 ffe4 fff2 fffa fff7 fff3 0003 000c fff9 fffb ffff fffe ffd0 fff1 0009 fff0 fff8 ffcc fff5 ffea fffa 
ffec ffff fff5 fff2 001d ffe4 fff5 fff9 0000 0006 fff7 fffe fffa 0012 0000 fffc 0007 fff4 fff2 fff0 0000 fff0 0003 ffe9 fff4 
fff6 fff2 fff0 fffe fff9 fffe fffd ffe2 ffd8 fff5 fff0 ffe9 0000 0007 fff0 ffec ffe7 ffd9 ffd6 fff8 fff8 ffe9 fffd fff5 fffb 
ffe2 ffef ffec ffe7 ffe9 ffee fff0 ffef fff7 fffb ffe6 ffff ffea fff1 fff8 ffe6 fffe ffe8 fff0 ffeb 0000 0005 fff9 ffd4 ffe3 
fff6 fffd fff7 fff8 fffd 0006 fff4 fff6 ffeb ffe1 fff7 ffec ffe0 ffe1 ffdd fff8 fffa fff6 ffee ffe5 fff0 fff1 fff2 0005 fffb 
000a 001a ffec fff3 ffe7 ffec 0003 0000 ffe4 ffe7 fff8 ffeb fff9 ffec ffee ffe1 ffe6 fffb ffec ffe2 0001 ffdb ffeb fffd fffd 
fff7 fff9 fffd ffee fffd 0002 000c 000c ffef fff7 0004 ffee ffed fffb 0001 fffd fff9 ffed fff0 ffda fff5 0002 0008 ffff fff2 
fff3 ffff 0002 fffc ffef fffa 000b 000f fff8 000f ffe0 fff6 fff2 ffed 0002 fff4 fff6 ffe8 0000 000f ffe3 fff8 fffd fff0 fff4 
fff0 fffc fffb fffb ffd5 ffdb fff9 fff8 fff5 ffe0 ffde fffa ffe6 ffe6 0001 ffe6 ffff ffec ffdd ffef ffe6 fff2 fff5 ffd8 fff5 
fff8 ffe9 fff1 ffee fff9 fffe fff4 fffb fff4 fff0 fff0 ffe1 fff5 0000 fff3 fff0 ffe9 ffe6 fff1 fff4 ffee fffd 0004 0005 0015 
fffb ffe0 ffc7 ffe6 001c 0006 ffef 0002 0014 fff1 0000 001d 0005 0009 ffe5 0017 fffd fffa fff2 ffde 000f 001a 000b 001c fff5 
002b 000f fff9 0008 ffde 000a ffef fffa 0002 0000 0006 0001 000d fffc 0001 0017 0023 0008 fff5 0000 ffee 0009 fff7 fff6 fffb 
0000 0000 fff7 ffff ffe0 0008 0005 000c 0007 ffd6 0006 fff5 000a 0019 fff1 000d fffc 0006 000f 000c ffe9 0009 000c 000d 0004 
001b 0013 0014 001a 0012 fff1 0005 fff9 0000 000c 0009 0031 001a fffa fffe 000b 000b 0017 0002 ffeb ffe0 0011 0024 0007 0000 
0002 0019 fff8 ffd7 fff6 0020 0022 000f ffe2 ffe7 0011 004e 0011 000b 000b ffd7 0011 0019 001c ffff ffd4 0000 0020 003a 0009 
0010 0006 000e 0015 000b 0007 ffff 0004 000a 0000 0000 0005 fffe fffb ffff fffe fffb 000f 0006 fff5 fff8 fffb fffd ffff fff2 
ffe8 fffc 0005 ffea fff0 000a 0000 000b 0009 ffeb 0001 fff6 0005 ffe0 fff0 fff9 0002 0000 ffe4 fff0 000f fff2 ffeb 0001 ffe6 
ffef fff2 000b 000e 000d fff7 0015 0008 000c fff9 0001 0009 fff8 fff0 fff0 ffe6 fffb ffff 0007 0005 fff3 0000 000e 000f 0018 
000c 0005 fff8 000a 001a ffe8 fff3 0008 0002 0027 001d 0009 fff0 0007 001d 002c 0012 fffe 0003 ffec 0022 0001 0008 fff4 ffe2 
0008 001c fff3 fffc 0007 0008 001b ffff ffe8 0004 0004 0022 ffff 0009 fff3 ffee fff2 ffff ffef ffda fffd fff6 0023 0023 fffe 
fffe 0006 0014 ffe0 ffe8 0002 0004 fffa ffd8 fff0 000c fffc fff9 fff8 0002 003a 0014 fff4 fffa 0004 0024 0005 0005 0000 000b 
001d ffff 000b 0011 fff6 0003 0003 0003 000e 0015 0014 001a 0001 0001 ffee 000b fffa 0015 0001 0008 ffe8 0002 ffe0 ffec fffa 
0008 0000 0002 fffd 0001 0008 ffdc ffda ffe6 fffb 000f 0014 000d fff5 fffa 0017 0003 0000 fff5 0009 0005 0008 ffe3 ffe9 fff8 
0019 0009 0008 0006 000f 000d ffea ffef 0001 0006 001b 0008 0003 0006 fff6 000b ffff 0005 000c fffd fffd ffe3 ffe6 ffe4 ffdc 
001a 0012 fff1 0000 ffdd 0007 0014 fffe 0017 ffe3 000d 0004 fff7 0015 0004 0001 fffa 0007 0012 fff5 fff1 fff6 ffeb 0014 fff9 
0008 fff9 0013 fff3 0022 0009 fffb 0004 001c 0039 0024 0019 001f 0015 fff6 000e fffc fff8 0017 ffe9 ffdd ffe3 000d 0006 fff0 
0006 0002 ffe7 fffe 0016 fff4 ffe7 0004 0017 000d 0002 fff2 fffd 000a 002c fff2 001b 0001 0000 000b 0037 003d 000d ffed ffd6 
0017 000f 0004 0017 000a 0023 0011 0006 0016 0004 0011 0015 0009 0008 000a ffed fff8 ffd4 0006 fff8 ffe8 ffe4 ffca ffdd ffee 
ffe6 ffed ffe6 ffee 0018 0001 0019 0006 0007 0031 fff9 fffc 000a ffdf 001f ffeb fff6 000a ffe2 ffe5 ffe8 0028 0011 0003 ffe0 
ffda 0015 0009 0014 000d ffda 001d 0028 000a fffd 0004 000b fff2 000e 000c 0000 ffa6 fff6 ffe7 0021 0000 000d 0021 ffec 001d 
0002 ffc3 ffdd ffeb 0001 fff8 fffc fff2 ffd3 fff0 0007 fff1 0017 ffe7 fff5 0008 fff4 ffe7 0003 fff6 0014 002a 003a 0027 fffb 
000c 000a 000d 000b 0016 0015 0006 fffb 000a 0005 0017 000c 000b 000f 001c ffe9 0000 0001 0000 fffc ffca ffdb ffed ffe1 ffbb 
0011 0001 fffe fffc 001a 0009 ffec fff6 ffdb fffa 0027 0000 fff6 ffef fff3 0014 ffdb fffe ffdb fffc ffc9 ffc3 ffee ffee fff7 
0003 0007 fffe 001a 0002 0012 fff9 0021 000d 001c ffee fffe 0017 0004 003b ffdc 001b 0012 0009 002a 0014 0029 001b 0016 0019 
002b 0024 001e 0003 0013 0010 0002 0008 0008 0021 002c 0014 000c 0019 0015 0016 ffef fff3 0010 001a ffc5 ffae ffd2 ffe6 ffe5 
0000 ffda fff3 0038 001f 0008 fff8 ffdc 000e 001f fffd 0003 ffeb 0009 0010 fff5 0020 000b 0000 ffef 002a 0026 0004 ffdf ffc4 
fff2 fff7 000f 0008 0005 000a 0002 ffff fff7 fffc 0033 0022 0009 ffe8 fff6 fffe ffff ffd4 ffc5 ffd6 ff93 ff80 ffb8 ffd8 ffc3 
0017 ffff 0006 0006 0006 001d 001f 0029 0016 fff6 0000 001e fff8 ffe9 0006 ffdf ffed ffd9 fff9 fffd ffd9 fff3 0000 fff3 ffee 
0003 0004 000d 000a 0012 001f 0017 0009 fffa 0016 001c 0021 0000 0008 0006 ffe9 fff4 fffc ffe9 fff6 ffcb ffc7 ffae ffd4 ffd4 
001a fffd fff2 fff7 0013 0024 0018 0018 0014 fff8 000c 0006 0015 0013 0002 ffd4 ffea ffff fffc ffee ffd7 ffd8 fff8 ffcf ffcf 
000b fff2 ffe8 fff0 001b 000f 0022 0015 fff6 0013 fffa 0012 001f fff9 000a 0007 ffff fff9 ffec ffe6 ffe1 ffec ffe5 ffed ffe7 
000f 000f ffdb fff8 001c fffd 0016 fff9 001e 0018 0004 000c 0014 0026 0030 fff9 ffe0 0000 0025 0013 ffc7 ffca ffe3 fff0 ffd6 
fffc 0004 fffe fff6 0008 fff1 fffa fff5 0006 0002 fff4 fff4 0004 fffe fff1 fff9 0004 0008 0000 fffb 0003 0000 fff9 0003 fff9 
0001 fff1 fff4 fffd fff9 fffc fff7 0001 fffa fff5 0001 fff5 fffb fff9 fff3 fffc fffc 0005 fffb 0002 0000 0004 fffd 0000 0000 
fffd fff7 fffd 0008 0004 fffc fffa fff4 fffb 0002 fffb fffb fff2 fff5 fff7 fff3 fffa fff5 fffb 0001 fffe fffb 0001 0000 fff6 
fff8 0009 fff1 0007 0000 fffd fff8 0003 0009 fffa fffd 0007 fff3 fff4 0004 0004 0005 fff9 fff7 0009 0000 0006 fff3 fff7 0001 
fffe 0002 fff2 fffa ffff fff2 fff1 fff5 fffc fff9 fffa fffd 0002 fff5 0000 fff3 0000 0008 0005 0003 0000 ffff fff8 0002 fff7 
0007 fffb 0002 fff8 fffb fffc fff7 fff2 0007 fff3 fff1 fff8 0000 fffc fff7 fffd 0005 0005 fffe fffa fffd 0005 0007 fff9 0002 
0008 0003 fff5 fffd fffb fff1 0000 fff4 fffd fffa 0009 fff2 ffff fffd 0004 fff3 fffd 0000 0002 fff3 fffb fffc 0008 fffb fffd 
0005 0005 fff6 0003 fff4 fff4 fff6 0007 fff7 fff4 0009 fffb 0000 0001 fff8 fff2 fff8 0005 0005 fffd fff3 fff3 fff5 fffc 0006 
ffff 0007 0006 0000 fff7 fff8 0003 fff5 fff6 fff1 0007 fffb fff5 0000 0000 fff1 fffb 0005 0006 fff3 fff2 0006 fff4 fff7 fff7 
fff9 fff2 0007 fff4 0003 fff2 0001 fffa 0001 fff7 fffc 0007 0008 fffe fff9 fffc 0001 fff1 fffc 0004 fffa fff6 0000 fffc fff2 
0001 0001 0000 0002 ffff 0002 fffa fffa fffd 0001 fff7 fffb fff4 fffc fff6 fffb 0000 fff9 0006 0008 fff5 000a 0007 fffe fffb 
fff3 0000 0002 fffb fff1 fff7 fffc 0006 0007 0006 0001 0005 ffff 0000 fffd fff5 0008 0004 fffe fff9 fffa fffe fffd 0005 0004 
fffb 0000 fff3 fffa 0003 fff7 0003 fffb fff1 fff3 fff5 0002 0008 fff6 0002 0005 fff4 fffb 0005 0005 0001 fff5 fffe fff8 0005 
fff4 fffd fff6 fffe fff1 fff8 fff8 0001 fff9 fffe 0003 0008 fff5 ffff fffe fff7 fffe fffa fff7 0004 0004 fff2 0000 0000 fff2 
ffff fff6 fffd fff8 fff9 0004 fffc fffb fff3 fff3 0001 fff8 fff5 0000 fff3 fffa 0005 fff4 fffd ffff fffe 0006 fff9 0001 fffd 
0008 ffff 0001 0001 fffa 0006 fff6 fffb fff4 fff6 fffd 0006 fff7 fff8 0002 0004 fff4 0009 fffb fff3 fffa fff4 fff7 fff8 fffd 
fffb ffdf ffd8 ffe2 002c ffe4 fffb 0009 ffcd ffff ffe8 000b ffed ffe5 ffc1 ffe0 ffdf 001a 0008 ffcc fff2 0041 003b 000f ffda 
0008 001d ffeb ffda fffb ffe2 ffeb ffe6 ffff 000e 0005 0006 0003 ffd5 ffeb 001d 0003 0012 0000 0000 ffff fffe 0000 000f 001b 
0002 002f 001c 000c ffe3 0000 0015 0008 fff1 ffbd fff6 0011 0015 0010 ffec fff9 0009 fffe 0019 0010 0009 000d fffd fffe ffff 
004c 0015 ffe9 0013 001a 0016 0004 0020 0000 ffe0 ffe9 0007 0013 ffe8 0001 ffee 0006 ffee 0014 ffda ffde 000a 0013 001a 0007 
002d 0064 002d ffcc 0008 001d 0025 0004 ffd3 ffe7 001d 0025 fffa fffa 0009 000f 002b 000e fff4 0014 0015 ffd5 002e 0014 002b 
fff0 ffe3 fff7 fff3 0006 ffea ffe3 ffd7 0002 000c ffee 0007 fffc fff6 ffe5 0016 0003 0014 000b 0002 fff5 ffe0 fff6 fff4 fff2 
ffde 0001 0007 fff0 000e 0020 0013 0004 000b ffdd 0002 ffe3 0007 002b ffef fffa 0009 ffd3 0006 0016 0037 0017 fffa ffed 0013 
ffe5 0000 0006 001b 002f fff3 001d 0006 0003 fff5 0004 001d 0004 0010 ffd1 fff8 000f fff6 fffb ffea fff3 000e 0008 fff6 fffa 
0005 0011 fffd 000f 002d ffc9 ffca ffe8 0000 0030 0009 000c fff9 fff5 0005 000f 000b fff5 fffc fff5 000a 0004 0010 fffe fff6 
002b 0028 ffe9 fff3 ffec 0007 000a 001c ffd3 ffb9 0007 fffb ffea fff7 ffe7 fffa fff8 001b fff2 ffdf 0013 0001 0013 fff2 0010 
ffe3 fff1 0007 ffde ffe6 0030 0021 0026 0000 fffc 0029 002d 001f 0002 000b 0043 0019 0000 fffb 002b 0011 001c 001a ffde 000d 
0005 fff8 000f 001d ffe5 fff4 fff2 0009 fff0 fff1 000c 0000 0010 ffef ffe4 000b 0010 000c fff9 0004 fffe fff8 ffe3 0002 0014 
ffb9 ffcf ffe0 fff7 fff6 ffdf fff4 fff9 0000 ffed 0007 0004 0016 0000 0015 0033 fff9 0025 000f 001a 0005 fff7 fff1 fff2 0029 
ffe5 ffcf ffe9 fffb 0021 fff1 0006 0000 fffd 0021 0001 0006 000f fff8 0004 0009 0001 0014 ffef ffe6 0004 0001 0012 0009 ffef 
fff1 0017 0024 001c ffd8 0003 000e 0008 0013 ffd4 fffa 0013 fff2 fff6 ffee fff2 ffef fffa 0004 ffea 0011 ffea fff2 000e 001f 
fff9 fff0 0016 0005 003a ffe5 ffd6 ffeb 000b 004e 0020 000d 000e 0016 0003 0021 000b ffe3 0009 ffc6 fff0 0018 0002 fffb ffde 
fff6 fff1 0009 fff5 0009 fffb fffd fff8 0004 fff7 0008 fffb fff9 ffff fff6 fffc fff9 fff6 fff8 fff4 fffc fff6 fff6 0003 fff9 
fffb fff1 0000 0004 fff1 fff2 fffe fffe fffa 0002 fff6 fff9 fffe fff9 fffe 0007 0000 fff8 fffe ffff fff1 fffa ffff fff5 0001 
fff3 fff4 fff9 ffff fff2 fff9 fffa 0006 0007 fff2 fffe 0002 0008 0005 fff3 fffb 0009 0007 0005 fffd fff3 fff8 fff9 fffb 0002 
fff6 fffb 0009 0005 fff4 fffc 0005 fff1 fff3 0003 0000 0003 fff3 fff3 0004 fffd fff5 0000 fffe 0000 0000 0003 0000 fff3 0004 
ffff fff8 0000 0006 fff5 fff6 0007 0000 0000 fff9 0007 0005 fffc fff6 fff5 0003 fffe 0001 ffff 0001 000c fff5 000a fff4 fffe 
0004 0006 fffd fff9 0005 0002 fffd 0000 0001 fff9 fffb 0002 0009 fffe 0006 fffc 0008 0004 0001 0006 0000 fff3 0006 fff9 fffb 
fff3 fff5 fff3 0001 ffff 0004 fffe ffff 0001 0003 0005 0005 0002 0006 fff7 fffc fffc fffd fff4 0008 fff8 fff9 fff4 0004 0000 
ffff 0004 fff6 0005 fffe 0005 ffff 0000 fffe fff8 fff6 fffd fffa 0002 fffc 0002 0000 0004 fff4 0004 0007 0000 fffe fffd fffa 
fff1 fff9 0001 0008 0000 fff2 0005 0009 0007 0003 fffb ffff fffb fffd fffa fffa fff3 fffe 0000 fffe 0008 0009 fff3 0000 fff7 
0000 0001 fff7 0004 fff6 fffb fffa fff6 fff2 fffa fff7 fff9 0003 0004 ffff fff1 fff8 fff1 fff6 fff6 fff7 fff5 0000 0000 0002 
0004 fffd 0005 fff4 fff2 fff7 0003 0003 0005 fff2 fffd fff6 0001 fff3 0006 0008 0004 fffb fffd 0001 0001 fffe 0005 fff3 fffe 
0000 fff6 fffb fffb 0001 fff9 fffe fff5 fff2 0000 fffc ffff fff2 0007 0004 0003 fffd fff4 fff9 0001 fff4 0007 0001 fff5 fffb 
fff9 fff9 fff8 fff9 fff3 0009 0009 fff2 fffc fff8 0009 0001 fff1 fff9 fff1 0001 fff9 000a fffb 0008 fff9 0005 fff8 fff6 fff8 
0000 0008 fff5 fff5 fffb fffe fff6 0002 fff4 fffb fff5 0000 fff7 fff8 0004 0000 fff2 fffb fff8 0008 fffc fffa fff4 fff3 0003 
fff9 0008 0004 fffd fff1 0002 0008 0005 fff2 0000 0008 0000 fff2 fff1 0000 fff9 0004 0000 fffb fff7 fff4 ffff fff9 0004 0005 
0007 fff3 0001 0007 0000 fff9 fff4 fff1 fff7 0006 0009 0007 0000 0005 fffd ffff fff2 0006 0008 fff4 fffd fff4 ffff 0006 fffd 
0002 fffc 0004 ffdd ffe7 0015 ffe9 0008 004e 0019 fff7 ffce 0011 0019 0010 ffd8 fff4 0007 000a 0015 000b ffe9 000a 0020 ffde 
ffed ffdb fffb 001c ffd0 fff1 0001 0007 fffd fff7 ffe9 0017 0030 0015 ffed 000d 0018 0007 0005 0032 fff7 ffee ffd8 ffd3 002b 
ffde ffe9 fffa 001f 0025 fffc ffe6 ffd5 fff8 0008 ffe0 ffd7 ffef 0011 001b 0004 ffef ffe1 0012 0025 fffe ffd9 fff9 001f 003e 
fffe ffdf ffef 0003 fffc fffc 0009 000b 000a 0026 0011 fff1 ffdf fff2 0011 ffe4 fffe 0010 0012 0017 ffa7 ffd9 001d 002c 001a 
ffcc ffd8 ffaf 0012 0010 ffe8 0013 fffd 0045 0026 0019 001b ffd9 000d 0015 0007 fffb fff2 0004 0012 ffcf fffe ffeb fff4 fffc 
0004 000a 0009 0020 fff3 0007 ffeb ffe4 ffe7 fff2 fff7 000b 0016 000e ffea 000c ffff 0009 0003 0002 000c fffd fff8 ffd3 ffee 
fffd 0005 ffec ffcd ffc5 fff0 ffe1 0000 0002 0024 fff6 ffde ffff 001f 003b 0001 0004 fffd ffcc 0020 0033 0023 fff0 0005 0023 
ffe9 ffe8 ffdd ffd9 ffab ffea fffc 000f 002d fff8 000c 0022 ffda 000f 0000 fff4 fffd ffe7 0005 0013 fff3 ffe5 0005 0028 0017 
fff8 0012 002a 0022 ffd6 0000 0000 fff3 ffec fff2 0010 0002 001f 000c ffe1 0029 002c 0038 fffc fffe 0033 0031 000a ffec ffe2 
fff8 000b ffe7 fff4 0004 fffd fffe fff2 001a 0001 ffde ffed ffea 002d fff1 ffe0 ffe8 0011 001d 0017 ffe7 ffd9 0030 0041 001e 
fff3 ffd7 ffdf 000f 0017 ffc5 ffc0 fffb ffd3 0007 0030 0016 ffce fff4 000c 0017 0026 ffef ffc5 ffec 005c 0004 ffe5 fffa fff5 
ffe7 fffb fff5 fffe 000c 0019 0029 0005 ffe7 fffc 000a 0015 fffe 0016 fffa 001e fff7 0002 0002 0020 0005 ffc1 fff0 fff3 0027 
ffef fff0 fff8 000a 0005 ffca ffd0 fff7 fffd 000f 0007 001e 000a 0014 0000 002c 0019 ffda ffe3 0003 0007 000b ffe0 ffd8 0005 
ffe5 ffea ffeb fffb fff1 0002 0011 0034 0037 000d 000e 0028 0013 0016 0002 001f 000f fff5 ffe6 ffed ffef ffe4 ffc4 ffdd 000b 
fff9 0000 fff2 0011 0010 0012 000d 0011 000d fff9 0003 000b fffe 0025 0000 fff1 000f fffd 0018 0010 fff8 fff1 ffe1 001e 0052 
ffd4 ffee 0004 0007 ffe5 fff1 ffdc ffe0 ffe4 ffa5 0006 0001 0012 003e 001b 0017 0002 000e ffff ffed fff9 0008 ffe0 fff8 fff1 
fff9 ffff fffd fff4 fff5 0001 0007 0003 0001 ffff fffa fff6 fff8 fffb 0004 0004 fff9 fff6 0006 0000 fffe fffc 0004 fff3 fffa 
0000 0005 0006 fffe fff5 ffef fff5 0009 fffa 0000 fff5 fff8 0003 0004 ffff fffe fff1 fff0 fffb fffd fff6 fff1 fff9 fffb ffff 
0001 fff5 fff9 0006 fff1 0000 fffb fffd fff3 0000 0000 0006 fffb 0001 0001 fff9 ffff 0006 0006 fff3 0002 fff0 fffd 0001 0005 
fff2 fff1 fff7 fffb fffb 0001 0007 fffb 0001 0001 fff9 fff3 0001 ffff fff5 ffff fff5 fffa fffe fff7 0003 0000 fff6 fff9 0002 
0000 0006 0005 0004 fff1 fff3 fffd fff1 fff4 0005 fff5 0007 0002 fffc fff9 0007 0006 fff1 fff9 0001 0000 ffff 0001 0004 0007 
fff4 ffef fff3 0003 0006 fffe fff2 fffb fff5 fff7 ffef 0005 fffe 0000 0002 fffb ffff fff5 fffb 0001 0000 fff8 fff6 fff2 fff2 
fff9 0002 fff7 0001 fff1 0000 fff2 fffe fff4 fff4 fff4 fff0 0001 fffa 0000 0002 0002 0000 0000 fff2 fffc 0000 0007 fff1 0006 
0007 fff3 fff4 fff4 0007 fffd ffff fffe 0000 0002 fff7 ffff fff5 fff8 fffc 0006 0007 fff4 0001 fffa fff0 0001 fffc 0006 fff4 
ffef fff5 fff7 fff8 fff8 0007 fffc fff5 fffa fffa fff8 0004 fff3 fffb 0001 fff0 fff3 fff0 0006 fff8 fff3 fffd fffd 0000 fff8 
fffb ffef fffc 0004 0006 fff7 fff1 ffff fff0 0004 fff8 0001 0003 fff9 fff2 fff7 fff4 0002 fff2 fff1 fff7 fff9 0006 fffd fffc 
fffb fff8 fff0 0006 fff7 0002 fff0 fff9 0000 fff0 fff0 fffc fff5 fff2 0007 fff4 fffb 0003 0000 fff0 fffb fff6 0000 fff8 000c 
ffff ffef fff7 ffef 0007 0001 0000 fff6 fff6 0005 0000 fffc fff4 fff8 fff3 ffff fff3 fff7 ffff fff0 fff1 fff3 fffb fff2 0001 
ffff fff5 ffff 0000 fff8 fffd fff8 0001 fffc 0006 0000 0000 0005 0003 fff8 0006 0005 fff8 0002 0000 fffe 0000 fff8 ffff fffa 
fffa fffd fff9 ffff 0000 0007 fff7 fffe fff2 fff6 fff0 0001 fff0 fff2 fff2 ffff 0001 fff9 0002 0004 fffd fffb fff3 fffb fffd 
fff5 fff2 0000 fffe fff9 fffe fff3 0000 fff4 fff2 fff1 0000 fffd fffd fffe fffa fffb fff2 fff0 0005 fffa fffa fff4 fff1 0001 
0003 fffc fffb fffa fffe 0009 fff6 fffd ffef 0004 fff2 0005 fff7 fff2 fff8 0001 ffff fffe 0007 ffff ffff fffd fff9 fffa 0000 
ffe2 001b 0001 0014 0005 fff1 0005 ffce 0008 0024 ffe4 0022 000a 000a 002d ffef 0039 ffed ffdf ffeb 0005 0000 fff2 ffeb ffc1 
fffb 0007 0003 fff8 0016 0037 0031 000f ffef 0011 0029 0028 fff3 0012 0016 ffe4 ffef ffe8 0021 fff1 0019 fffc ffef fff4 fff1 
fffe fff3 0000 ffec fffb 000e 0037 002e 0005 ffe3 000c 0024 0018 ffd9 ffc3 ffea 0001 000b 0000 0003 fff8 0009 0008 fff5 fff4 
0034 000b 0022 000c 001a fff9 0020 ffec ffe4 0005 ffd7 0026 0005 fffb fff3 ffea fffb fffc ffd7 fff8 0049 001a fff6 ffe0 ffec 
ffff fffe 0011 001f 0007 fffe fff5 0012 fff2 fff7 0004 fff6 ffef ffca fff0 0016 0007 ffb9 ffff ffd6 0027 0032 002e 0042 000e 
000a ffec 0000 0000 001a 0016 fffd 0009 0011 0019 0006 0004 0000 fffc 0007 ffee 0000 0008 0003 fff8 fff5 0003 0012 fff2 0000 
0014 0000 0016 000f 0015 fff2 ffe2 0013 fff3 ffd8 003e 0008 fff5 ffef fff7 002c ffed fff1 ffff fff0 ffc5 ffce fff6 fff2 ffe1 
fffa fffd 000a 0006 002e 0000 ffe6 ffda ffff 0028 ffea fff7 ffff 0009 002a 0012 002a 0003 ffdb ffc5 0001 001d ffed ffe2 ffec 
ffe9 ffd4 fffa 0005 002c 000b fffa fff1 fff6 0000 002e ffe8 ffce 000c 0020 ffeb ffc5 ffe3 fffa 0008 ffe7 ffdc fff3 fffc fff2 
fffc 0018 0037 ffe7 000d fff5 000f 0006 0000 0025 0008 0019 0017 fff3 0033 0011 0012 fff2 ffdf fff5 0018 0001 0012 0004 0000 
0009 000b 0010 ffdb fff5 001a 001c fffe 000e ffdd 001a ffff 0023 000b ffef fffc ffe6 fff7 fff9 000b ffc3 ffa6 ffe8 002d 001f 
0049 0002 001e 000d 0004 001b 0018 002c 0033 ffee fff1 000d 000f 0015 0003 ffd4 ffe8 fff5 0012 0000 0014 001b 0000 ffe1 ffea 
001b 001b ffe9 ffed fffa 0050 001e fff2 fff5 fff2 001c fff6 fff8 fffa 0007 fff4 fffc 0002 fffe 0001 000a fffb ffe7 fff0 ffff 
000f 0005 fff7 000c 0012 0019 fff7 ffeb ffef fffa fffc fff4 fffa ffee fff2 ffea 0000 ffff 0018 0002 0017 000d 000f fffd ffec 
0001 000d 000b fff9 0013 0009 002a 0022 ffed ffed 000a 0035 0027 fff4 fff3 fff7 000e 0007 0008 ffee fffb 0003 fff1 fff6 fff9 
ffc5 fff1 fffa 0004 000d fff7 0004 0022 001d 002f 0000 ffd4 ffda ffd1 005f ffd0 ffd6 fff1 ffed 0018 000a 0016 0015 0011 ffe1 
ffd5 000d fff5 0023 0002 ffc6 0004 0008 0015 fff5 fff8 0027 0016 fff3 ffea 0025 0013 000b fffd fffc 0033 0028 fffb ffdf fff2 
fff7 0005 0002 0015 0007 0007 fff9 fffd 0010 0023 0004 ffe1 fffc 0012 001d ffd6 0021 0019 0003 0005 ffd6 fff0 ffe5 fff0 001c 
0005 0013 ffdd ffbf ffa7 000d 0030 fff4 0004 ffff 0002 fff1 ffcc fff6 0011 ffee fff0 ffeb fff2 0000 ffe8 000c 000c 0005 fff3 
0003 ffe2 0003 fff7 fff1 0005 fff3 000e 0007 ffe5 0013 fffb 0015 000a 0001 fff2 0007 0003 0004 0000 ffdc ffff 002d 0000 fff1 
0015 0005 ffc1 ffa1 ffcd 001f fffe fff2 ff8c ffcc ffff fff2 0032 0009 ffde ffd8 fffc 0030 000d fff6 ffca 0001 0018 0021 fff5 
fff5 ffe3 0014 0006 0014 000c 001a 000e 0013 001e fff9 fffe fff0 0018 000d fff2 0000 0004 fff8 0009 ffe4 ffef fff8 ffdf fff1 
0010 0007 000f 0021 0036 000c 002c 0025 002f 0013 0039 001e 001c 0006 ffe2 0002 0021 0025 0029 fffd 0014 ffd5 0027 0008 000e 
0019 000f 000d ffed ffe9 ffff ffff 000d 0003 ffd9 ffec ffe4 fff4 0000 fff5 fff6 ffe3 0014 0014 0004 ffe4 000b 001b 0019 ffe2 
ffe0 ffe9 0020 001d 003f fffc 0000 0018 0022 001c 001c 001a 0024 0014 0022 0005 000f 0008 000c 0011 0001 fffb 0016 fffe fff9 
fff2 ffeb ffe2 000b 002a 0017 ffe3 ffd6 fffe 0007 001c fffe 0006 0000 ffd7 fff0 ffee 0017 0004 fff4 fffb fff3 0007 ffdc ffc1 
0005 0016 0023 0011 ffff 0020 001a fff8 0014 000b 000a 0016 fff7 0008 0017 0040 fff6 fff3 0014 0007 002e ffe6 fff9 fffd ffbd 
0006 0009 fff9 fff7 fff7 0009 ffe8 0000 0005 001d fffb fffc ffe4 fffc 000f 0009 fffd 0001 ffed 0011 ffc4 fff2 ffec ffff 000c 
001c 000e 0019 000d fff1 fffc 0020 0024 0013 0013 fffb fffb ffe5 0003 fff9 000d fff6 fff6 ffee ffff ffea ffe7 ffe2 ffcb ffe8 
fff8 001b 0011 0009 002e 0003 000b fff4 fffb 0021 fff6 0000 fff3 0000 0002 ffff ffed fff7 0009 fffb ffe2 ffde ffd9 ffc9 ffcf 
fff8 ffff ffd7 ffef ffcf 0001 fff5 fff1 fffc ffd0 ffe9 fff7 ffe8 0017 0014 ffec ffee ffe8 fff8 ffed ffe0 fffe ffea fffd ffee 
fff1 ffe7 ffeb fff6 0032 fff8 0016 001c 001e 0053 0003 0018 000a 0007 ffe3 0017 001a 0029 001e fff6 ffdd ffd2 ffe2 ffdc ffe2 
ffed 0012 fff4 0012 0009 0006 ffe7 0001 0026 0014 ffea ffd2 fff9 0004 ffc4 ffc8 ffd8 fffb ffd3 ffe8 fffa 000c 0002 000d 0026 
001d 0011 fffc ffea ffd8 0011 000f fff4 000a 0004 0007 0014 000b 001f 001d fffe 002c 0017 0017 0005 ffe7 ffe9 fff8 0008 ffe6 
ffef ffea fffe fffd ffd0 0000 fff9 0003 ffec ffe5 fff2 ffe6 000e ffe0 ffce ffd7 ffee 0020 0002 0008 ffe1 000f 0012 0019 ffe0 
fffa 0000 000e 001d 001d ffde 0006 ffd3 0018 0009 fff5 0017 0006 000f fffb ffc8 0006 0005 fff5 ffce ffc1 fff8 0003 fffe fff8 
ffe1 ffc1 ffbe 0019 002b ffe4 0001 fff1 fffd 0006 fffa 0034 ffdf fff2 0000 ffce 000b fff6 0000 fffe ffd6 ffc0 0003 0051 0009 
0004 0016 002d 0013 ffed 0015 0011 0016 0000 0012 0004 001a 0018 ffff fff7 ffef fffe 0011 0010 fff4 fff5 0010 0002 fff8 fffd 
fff6 fff8 0002 0024 0051 ffdd 0014 0025 0006 001f ffea 000a 0018 0014 001e 001f fff4 ffee 0008 0009 0046 ffe7 ffd7 ffdd ffde 
0002 fff4 fff4 ffea fff9 ffed ffe4 0010 fffc ffc5 ffd5 ffdf 0009 ffef ffcf ffdc ffd7 fff9 ffdd ffe3 ffd4 000a 000b 0015 001b 
001c 003f 0010 ffff 001d 000c 0003 0006 0008 0006 0047 0030 001a 0011 0031 0033 002b 001c 000b ffce fffc fff6 fffd ffd9 ffd2 
ffe4 000b fff8 0004 ffff 000b 000b fff7 0005 0022 0007 0011 fff3 fff8 ffc2 fff0 0007 fff8 ffe5 0007 fff7 fff4 0028 0024 0024 
ffe6 fffe fff1 ffe8 fff8 fffc ffc5 fff4 ffe0 ffee ffff fff3 fff1 0014 001b 0084 003d 0009 0036 002a 005d 000f 0010 002c 001d 
0017 000f fff3 fffd fff5 0010 0011 0004 fff4 0001 ffde 0018 0016 0017 0014 fff8 0002 0019 0015 0000 fff1 ffff ffeb ffd7 fff4 
0031 0020 ffed 0003 ffeb 0024 fff8 fff1 fffe fff5 fffb ffee ffeb 0008 0008 004c 0011 fff8 0016 0027 002b 0024 fff6 0009 ffff 
001e 0014 001c fffb fffd 0019 ffff fff7 fffc fffa 0012 0005 000e fffb fffe ffdd ffe2 ffe2 0005 fff7 ffd7 ffe3 fff0 ffe7 fff2 
0000 ffff 000c fffa ffdb 0015 fff6 0000 ffff ffc1 0009 0011 000d ffff fff4 fff3 fffc 001b 0026 000c ffed fff5 fffb 000b ffd9 
ffea 0010 0014 000d 0003 fff7 0001 000a 0029 0035 0009 0023 0011 0011 fff2 fffc fff0 0034 0015 ffd5 ffcb ffe9 0016 0008 ffe8 
ffe9 ffe9 ffef 0018 fffa fffa ffe9 fff6 ffe8 fffa 0000 0010 ffe8 ffe8 fff1 0000 fff3 ffef ffed ffef fff6 fff2 ffe2 ffff fff8 
0000 0006 ffee fffb fff4 ffed ffe7 0004 fff9 0000 ffed ffe4 0000 ffea 0002 fff3 fffa fff6 ffed fff5 0000 0000 fffe 0004 0006 
fff9 000e fff0 fff4 fff3 000d 0000 000e fffc ffe9 0004 fffa ffe6 0007 0003 fffc ffeb 0001 0009 fffd 0001 0000 fff0 0003 000d 
ffe4 ffee ffee 0007 fff8 ffea ffe4 fffd 0008 ffe8 ffed fffe 0004 0003 fffa 000c fffb fffc fff8 fff2 fff7 ffe5 0000 ffe2 ffeb 
ffe9 fffd fff6 fff3 fff7 fff6 fff5 ffe8 ffec 0002 fff8 fffc 0020 ffef 0012 fff3 0006 0009 0000 fffb ffe4 fffd fff6 fffe ffed 
0003 fffa ffff fff6 ffee fffb ffe9 fff7 ffff fff9 fff8 ffe3 fff9 ffea ffe4 fff2 fff7 fff0 ffed fff1 fff1 fff6 0002 fffa fff4 
ffe6 fff4 fff4 fff2 fffb fff5 ffe8 fffa fff5 fff8 fff1 0007 0006 0000 fffa 0000 0001 ffe6 fffa fff3 fff8 0000 0009 0008 ffee 
0003 0002 0003 0001 ffec ffff fff0 0006 fff0 ffeb fff9 fff3 0003 0003 fff6 0005 0000 0000 ffef fff1 fff4 ffea ffe6 0005 fff1 
fffa fff2 fff5 ffec fff0 fff4 fff4 ffec ffed fff4 fff1 fff1 fff5 0003 0005 fffc fff0 fff9 fffc fff6 fff5 fff6 fffb 0004 ffea 
0006 fff0 ffeb 0000 fff2 fff8 0004 fffb 0005 fff5 0006 fff5 0000 fff7 0002 fff5 ffff fffc fffd ffef 0005 fffe ffe6 fff5 fff1 
fff5 ffec fffe fff2 ffe5 fffb ffea 0002 fffd ffed fff2 ffea fff8 ffeb ffec ffeb fffe fffd 0003 000c fffb fff6 0003 0004 fff4 
fff3 0001 0000 fff8 ffe9 fff8 ffe3 0000 fff7 ffeb fff5 fff5 fffa 0000 ffef ffe5 fff0 fffc 0000 fff9 fffa fffc fff6 ffec fffa 
fff6 fff6 fffe fff3 ffea fff3 fff6 fffe fff7 ffed fff2 000c 0004 fff0 ffe3 ffe9 ffec fffd 0001 fff2 fff8 0000 fff8 fff3 fff6 
ffff ffed fffe fff9 ffef ffe5 fff2 ffed 0002 0000 ffea fff0 ffe4 ffe8 fff4 fff3 ffea 0001 fff7 ffe9 fff5 fff4 0000 fff6 fff4 
fff9 fff8 0008 fff7 fffc fffa fffd 0005 fffb fff5 fff1 ffed 0009 fffd fff8 fff1 fff7 fffc 0001 fff1 fffb ffeb 0000 fff5 0007 
ffff ffe9 fff7 ffef ffec fff6 0007 fffe 0001 fff4 ffe8 fff4 fff7 ffeb ffff fff0 fff1 ffed ffee fff4 fff9 0000 fffc ffee fff5 
ffda ffdf ffd5 ffef 0045 fff7 0000 ffdf 0007 0014 002c 0019 0005 ffff 001f 000c 0019 0008 fffb 0005 fff6 0016 000c 0013 ff9e 
0029 0017 ffb3 ff79 ffd0 0012 0000 fff7 ffcd 0034 0003 0014 0017 000a 0029 0024 0000 ffff 001b ffd8 0026 ffe3 fff4 0002 ffff 
0041 0049 ffe4 ffcc 000e 000d 0031 ffd0 ffd0 ffaf fffc 000f 0002 000a fff7 ffea 0003 0000 0007 ffe4 0000 0019 fffa ffdf 0000 
0025 003e 0060 0008 0024 fff6 0030 001c 0009 0008 ffe5 0023 0018 ffed fff4 001f 0001 0019 fff4 fffb 0004 000a 0021 fff1 ffe3 
0033 0028 005c 003b 0006 0021 fff8 0055 0008 ffdc 0007 0018 fff7 ffe4 ffef ffed 0003 ffcd 000f fffa 002f ffff ffd6 002d 0010 
0003 ffd8 ffbd ff9a ffba fff3 ffeb ffcc 0002 0017 ffe0 fffa 001b 001c 0009 ffed fffb 0019 ffff fffd ffde fff6 ffef fffa ffde 
ffe1 ffe7 0003 001b 0054 ffed ffe2 0036 0003 ffe5 002f ffe1 fff3 ffff ffcb 0011 ffd2 ffd1 ffd5 fff1 001a ffda ffba 001a 001e 
fff9 002a ffd2 001d 005c 0006 fffd ffcc 002e 0022 0016 fffa fffc 0000 0016 0004 000c 0006 fffb 003e ffe3 0026 ffff ffcd 000d 
ffd7 ffb4 ffc1 ffe6 fff5 ffd6 ff8d ffbc ffc4 003a 0049 002e fff5 fff8 0034 0006 fffc ffee ffe1 0011 fff7 fff2 ffee ffef fff0 
0048 0000 0018 0008 0028 0022 0018 000b fffc ffda 0004 0012 0006 0011 0019 fffe fffe ffe9 0020 000a 0010 fff6 000f ffde ffe2 
ffc0 000c 0027 fffb ffe8 fff9 fff2 0004 0024 ffe8 0012 ffd7 ffe6 ffd4 ffed 002b 0009 ffd4 ffbb 0001 fffd 000c 0010 ffcf 0015 
0014 ffce fff9 fffb ffc2 fff7 0003 0002 0011 fff6 ffe3 0018 0023 0011 ffea 000c fffb fff8 0021 0012 ffef 0022 ffe3 fff5 0013 
ffd3 ffdd fff5 ffe9 fff2 000d fff0 0015 0031 0001 ffff ffd9 001c 0010 0000 0006 0017 0011 fffa fff0 0012 0000 fffd ffe9 fffc 
fffd ffeb ffbb ffe8 0005 fff1 0012 0000 fffa 000e 0016 000c 0009 0001 0016 ffeb fff9 0003 001d ffec ffec 0015 001f 0014 fffb 
0020 000b 0004 fffc ffe3 0020 000d fff7 ffec ffe5 0016 001c 0009 ffdf 002a 0001 fff7 ffff 000e ffea 0023 fffa fff4 fffd 0001 
ffbf ffa0 ffc7 ffef 0005 ffce ffb9 ffa3 0009 002f 000d 0009 001e 0011 0052 ffea ffe6 fff3 fffc 000f ffef fff2 0000 fffa ffa5 
ffd3 fff3 fff5 fff1 ffe4 ffe7 0010 0002 0013 0025 ffec 0018 0005 fff4 ffd9 fff0 0000 0000 fff3 fffd 000f 0016 fff8 fff5 0024 
000a 0029 000e ffff fffb 0015 fff0 fffd 0015 0023 ffe3 ffea fffe 0015 001c ffec 0012 001c 000d 0004 ffe4 ffef 0004 ffeb ffec 
000d 0009 001f 0001 ffe8 fffc 000b ffff fffd ffef 0004 ffee ffee ffed 0002 0008 000a 0002 ffdd 0000 fff5 0017 0008 0014 fff4 
ffec ffdb 0011 0016 fffd ffd9 ffeb fff9 fffc 0010 ffef 0006 001b 000a fff9 0005 fffd 0008 ffd9 fff9 fff1 ffca 0000 fffa 0007 
ffd9 ffe6 ffb8 0000 000c ffe4 fffe 0015 ffef fffc 001c 003f 002d 0001 ffed ffd4 0011 0006 fff8 fffb ffdb fffe 0027 0014 0000 
000f 0009 0009 0001 fffa 0023 0017 0023 001c 001b ffef ffee fffd 0007 0022 ffd2 ffdc fff3 0013 0012 ffef ffff fff2 ffe8 fff5 
0004 000d fff8 001a 0049 0007 002d 0031 001e 0008 0028 0009 0007 0007 0006 001e ffef 0009 0024 ffdc 003f fffd 0013 ffff ffe3 
fff8 fff1 fffd ffec 0006 fff2 0004 0007 001b ffee ffec 0001 0002 ffdd ffda 0003 ffe6 fff6 fff5 fffc fff6 fffb fff7 0012 fff2 
002e 0018 001c 0006 000d 001e 000e 0029 0011 000c 0024 0014 0032 0049 0025 0011 001c 0000 0013 0000 0011 0015 0017 0000 0002 
ffd2 fffc ffde ffea 0021 ffef fff9 ffd9 0010 001a 0000 0012 ffef ffe2 ffeb 000a fff3 ffe3 0000 0010 fffd ffef ffff fff7 0021 
002d 0021 0017 fff9 fffa 0022 0004 0015 fff8 ffec 002e 0014 001e fffd ffff 0064 0033 001b 001e 000a 004b 0014 0002 0015 fff9 
0016 0017 000d ffeb fff6 fffc ffd3 fffc 0010 0002 ffce fff3 0003 0003 0011 0006 fff3 0013 fff5 0001 fff9 ffeb fff1 fffb 000e 
002b 000d 0009 ffec ffed 0010 001e 000c 0009 0003 ffe4 fff5 ffea fff6 0003 0015 fff4 0000 0009 0013 0013 fff6 fff7 fffe ffe4 
002c 000e 0022 0004 0005 0002 ffee fff3 0016 001f ffec fff0 fff4 0003 0012 ffe5 ffef ffec 000a 0001 ffe6 ffe0 ffde ffde ffed 
fff8 0017 fffd ffeb fff5 fff8 ffe1 fff0 fffc ffd0 ffea 0008 0005 fff5 0001 fffe fff4 0015 000d ffdc fff0 fff7 fff5 0006 ffdb 
ffff fff7 fff8 fffa fff7 fffd 0017 002b 0023 0043 000d 000f 001e 000f ffff 000b 001f 000b 000e 000f fff9 ffd2 ffde fff9 ffd7 
0004 fff0 fff7 0007 0009 0006 fff1 fff2 fffc ffff fffa 0000 fff2 0000 0005 fff4 fff2 0003 fff6 fffc fff4 fff4 0003 fff7 fff1 
0001 fffd fffa ffff 0008 0007 fff2 fff1 fff6 fffa 000c fff8 fff8 ffff 0002 fff4 fff3 fffd fffe fffa fffe fff1 0001 0004 ffef 
0000 fff2 0002 0006 000a fffc fff4 ffff fff6 0000 0007 fff3 fff2 0002 0007 fff5 0004 0004 fffe fff6 0000 fffa fff6 fff3 fff3 
fff6 fff9 0003 0004 fffd fffc ffff fff0 0005 0002 fffd fff8 0000 fff8 fff9 fffc 0001 fff5 0000 ffef ffed fff9 fffc 0006 0000 
ffee 0006 0006 0001 ffef fff3 0001 000c fff3 fff1 ffff fff8 0014 0001 fff2 0002 0004 ffff 0000 0003 0001 ffea fff0 0000 0006 
fff8 fff7 fffa fff5 0004 0004 fffe fff1 fffe 0004 fff4 fff5 ffff fff1 0005 fff6 fffe 0006 fff5 fffe fff1 fff0 0005 fff6 ffff 
fffc ffff 0009 0000 ffed 0004 0003 0012 0008 0000 0003 0007 fff7 0006 ffff 0008 ffff fff6 fff5 fff0 fffd fff3 0000 0000 fffe 
000a fff3 fffc ffff 000f fff4 fffe fff6 0002 0000 ffef fff7 0004 fff1 0005 fff8 fffc 0000 fff0 fff9 0009 0006 0003 ffef ffee 
fff4 fff4 0004 0004 fffd fff6 ffef ffef ffff 000a 000a fff9 fff0 0000 0005 ffee fff5 fff6 fffd fffb 0000 fff5 fffb 0002 fff2 
0003 fff9 0004 fffe 0016 fff4 fffc fffd fffa 0005 fffd ffef fff5 ffed 0002 fff7 fffa 0000 ffee fffd 0009 fff2 0002 fff4 ffef 
fffa 0008 0004 0000 ffee fff4 0002 fffb fff5 fff9 ffff fff7 fffc fff4 fff6 fff4 0000 fff9 fff0 0000 fff9 0004 fff3 fff3 0004 
fff8 fff8 0000 fff0 fffa 0000 fff9 fffe fff6 fff7 fff2 fffc fffe fffe fffd 0002 0000 fff6 fff7 fff8 fff7 0002 fff0 0004 fffd 
fff2 ffff ffef fff5 fff3 fff2 fff6 fffc fff9 fff0 fffb 0007 fff9 0007 fffc 0004 0004 0000 0006 fff6 0000 fffe ffff 0001 ffef 
fff0 fff1 fff6 0005 fff1 ffff fffd 0005 fff5 fff1 fff9 fff4 fffe 0004 fff0 0008 fffe 0002 fff4 0001 fffc fffa 0000 fff8 ffff 
0001 fffc 0000 0004 0003 0003 fffc fff2 fff8 000b 0000 0000 fffe fff3 0005 0008 fff7 fff7 ffff fffc fff3 fffa 0000 fff0 fff5 
fff9 fff4 fff2 fffe 0000 fff2 fff3 0005 fff5 0000 0003 fffc fff7 0002 0006 fffb fff6 0002 0001 fff5 ffff fff8 0002 fff2 ffef 
0038 ffe7 ffdd 0005 003d 0036 0016 000e ffdc 0004 0031 001a ffc2 ffde ffef 0018 ffd8 ffc9 ffd4 ffd1 0017 fffb 0004 0004 ffef 
0039 0016 fffe ffee fff7 0014 ffd1 ffe8 ffda ffd1 0007 0007 0000 ffe7 0017 0013 002e 0016 0000 0006 fffe 000b 0003 ffec 002c 
0030 0006 ffff fff4 000a 001b fff3 fff2 fff6 ffee 0019 ffee 0002 0011 ffea 000f ffe6 0018 0003 0003 fff5 ffe7 004d 0026 000e 
002a 001c 0033 0037 001e 0018 fff3 0018 0013 001d fffe 0016 0016 ffed 000d 0007 fffe ffc9 0001 fff7 0007 fff1 001a 0017 fff9 
0010 001f 001c 000e 002f 0008 0017 0025 fffd 0006 fff0 0016 0023 ffea ffec ffd1 ffee 0016 ffd4 fff7 ffe4 002e fffe 0000 000f 
fff0 fffd fff4 fff7 0000 000b 000a ffe6 fff8 ffe1 0014 000e fffd fffa 000a fffb 0017 0012 0015 001b fff5 001d 0011 0007 0018 
0015 fff8 fff7 fff4 fffb 0009 000d 0027 000f 0025 000f 000f 0019 fffd 0009 ffef 0010 0021 ffd8 ffd5 ffde ffc7 ffe0 ffe8 ffde 
fffd fff9 0005 001c 0035 0007 0006 0004 001b 001c fffe 0004 ffe8 0020 0028 ffed ffd5 000b 0024 0004 ffe7 fff0 0019 0006 002b 
001e fff9 ffce ffcc 0007 000e ffe2 ffe7 ffd8 000c 003a 0015 fff1 ffdd 000f 001c 0012 ffed fff8 0001 0028 0009 fff5 ffee 0008 
001f 0012 0003 000e 0000 0004 002e 001b fff1 ffea fffe 0006 fff6 fff0 ffda 0005 fff4 fff1 fff4 ffb5 ffee 0022 0020 0019 fffd 
000b 0008 fff7 ffef fff5 000c 0017 fffc ffbc ffe9 ffca fffc fffa ffbb 0002 ffeb 0000 0011 ffd0 001d ffe3 ffd7 fff7 ffcc ffe7 
0019 ffe0 ffe5 ffff fff5 0016 fff9 ffee ffff fff2 0005 fffc fffa 0004 ffff 0011 0006 0007 0009 fff0 ffe1 ffdd 0003 0011 0014 
0003 fff8 fff2 fff4 000f 0043 0002 ffcc ffde ffd7 fff9 fff6 0008 fffa 0013 0031 002d 001f 0026 0027 ffd5 ffe0 ffd4 ffe4 0000 
0026 0019 0005 0007 001e 001f 000f ffea ffe6 fffa 0020 ffe8 fff6 fffe fffb 000e 000e 0019 000e 0015 ffdd ffd9 ffde fffe 0006 
000b fff8 000c 0014 fff4 0006 fff0 fff9 001f 000a 000e ffe9 001a 0000 0011 0006 fff8 0011 fffc fff7 fff0 fffa 000c 000a 0010 
0012 fff6 0000 fff1 001e 0018 001e fffb 003b 0044 001d 000d 0013 0015 0007 0015 ffed ffe3 0026 0025 fff7 ffd8 0002 0012 0016 
fff7 ffe1 000c 000a 001f fff0 0015 0025 0016 001d 0009 fffe 0011 0005 ffd4 0007 ffeb 0005 0010 ffef 0005 000f 0011 0007 ffe3 
fffa ffb2 ffcd fffe ffd1 ffbf ffbb ffec ffff ffee 000f 000f 000e ffef fff8 000f 000b 0008 fff2 fff5 0000 0012 fffa ffff ffed 
0011 ffee ffda ffe4 0044 fffc ffe0 ffca ffde ffe2 0017 0008 ffde fffb 000c 0025 fffe 0016 0000 ffda 0018 ffff 0014 fffe fff1 
0001 0012 0017 001f 0026 0002 0022 001a 000b 0024 0010 0016 0004 0000 fffa 0015 000b fff3 0016 fff0 ffe9 0029 0009 001d fff7 
0019 0028 0053 0020 ffe4 0013 0014 0006 ffe9 ffc9 000f 002b 001c fff2 fff6 0006 000f 001d fffc 0031 ffe7 ffed 0015 000f 001a 
fff6 fff2 ffd5 ffea fff2 ffea ffeb ffe7 ffe3 fff3 000d ffee 001c 0009 0015 0013 001c 0019 0004 fffb ffff 0005 0001 0003 fff5 
ffea fffe 0019 0031 001f 0004 0000 fff7 002c 0024 ffad ffd2 ffed 0015 0004 0002 fff5 fffa ffe9 fffe 0000 ffe8 ffe3 ffff 002e 
fff5 ffe8 0015 0025 0017 fffe 0014 0003 0027 fff7 0022 001c 001c 002e ffe2 0008 0000 0001 ffef ffde fffe 0000 fff9 ffe9 fff4 
ffcd ffc4 ffed 0026 0014 ff92 ffb6 fff9 fffa 002d ffab ffd7 ffdf fffc fffc 001e 000e 001a fffd 0003 0017 0003 ffea 000d 0004 
fffd fff9 fffe 002f 0027 ffed ffff 0022 003b 0003 fff1 0000 ffdf 000f ffef fffd fffc 0022 001f fff9 0006 001c 001f ffd9 000c 
fff7 fff8 ffe1 fff4 0003 ffbc fff6 fff6 0005 0010 ffb1 ffeb fff7 000a 0026 000b ffe5 ffdd ffec 0006 000d 0004 ffff ffd5 fff5 
ffee ffea ffe9 ffe9 000a fff7 0004 0005 0003 0007 0021 0015 000c fff0 fffa 0024 000f fff6 fff0 0000 fffe 001a ffed fffd fff9 
ffc8 ffcb ffd8 ffe2 fffa ffdc fffa 0010 0027 000b fffd fffc 001a 0033 0016 001c fff4 0009 0008 fffe 0003 fff2 fffc ffea fffd 
fff2 fff3 ffcd ffdf ffea ffed fff6 fff1 fffd 0003 0017 0003 0023 0003 0017 001e 0001 fffd fff5 ffff 0019 fffe fff3 0001 0003 
0001 ffdc ffe5 0014 0015 fffb ffe5 ffcf fffd 0015 000a fff5 ffd0 fff2 0008 001a 000a fff8 ffe7 ffff 0004 0000 000f fff0 0002 
0018 fffa 0008 000f 002e ffed ffc9 fffa 0009 ffff 0004 000f 0009 001b 0010 0003 000c 001f 0023 0004 0008 001e 0000 ffe9 ffde 
001b 0016 fffb 0004 fff7 ffe0 ffed 0001 0030 0011 ffeb ffc3 0017 fffc 0004 ffe9 fff6 0015 0004 000e 0010 0009 0010 000d fff6 
ffca ffeb 0008 0027 fff9 0004 fff0 fff9 ffec ffdf fffd fff3 0005 fff4 0003 fff6 000c 0013 0004 0013 ffee fff6 0001 0014 001b 
fffd ffc4 fff8 0007 0032 ffee ffc7 ffde 0000 0039 ffeb ffdf 0000 fff1 0005 fff8 fff9 fff7 0006 ffe7 000e 0007 000f 0016 0010 
ffe1 000d ffc3 ffe9 fff4 ffdd fff4 fffa 0022 0020 ffc6 ffca ffe5 0016 000b fff7 ffef ffff 000a 0008 ffe5 fff6 001b 0015 fffe 
ffd4 ffde ffb4 ffb0 000b ffde ffde ffe8 fffa 000f ffee ffe2 0000 0014 0000 0009 fffb ffed fffb ffe8 fff3 0004 0002 ffdd ffc5 
ffee fffd 000b 0012 0010 000b fffc fff0 fffd fffc ffed 0000 0000 0012 0000 fff1 fff9 0002 000b 000a 000c fff8 0008 fffb 0006 
0005 0011 fff6 fffc fff7 002a 001e 0014 fffd 0021 0031 001d 0009 000c 0022 0013 0016 0013 001e 0023 001c ffe9 fff5 0017 0004 
0013 ffe8 ffde ffec ffc8 ffdd ffe9 001a 0011 000c ffdf fffb 0008 0006 0010 0009 fff0 000f 0004 003b 000a 0004 0022 0017 ffe9 
0021 0020 002d 0006 ffc9 002b 002a 0021 0001 ffe0 0017 0003 0005 0000 fff5 fff9 0017 0031 000e 0024 0007 0013 000a 0000 fffb 
ffe0 fffb ffe7 0017 0013 fff3 ffe4 ffde 002d fff6 fff6 ffe4 001b 000b ffdb 000c fff3 ffff 0004 0001 fffa ffec 001a fff1 ffff 
0000 ffe1 0012 fff5 000c 001b 000c fff0 ffdd 0009 001e 0023 0015 fff4 0002 fff9 0018 000f ffef fff4 002d fffe fffa ffe8 ffe1 
fff8 fff5 fff6 fffe 0005 000f fffe ffe9 fff4 000f ffef 0007 0001 0005 fff3 fffb 000a fffd 001a 0006 0014 fff2 001a 001d 001d 
0006 0007 0005 0000 000a 000e fff5 0010 000c 0008 000c 0020 fff7 0002 000d 0003 fffb ffec fffd 0008 fffd 0005 fffb 0002 0002 
0001 ffe8 fff9 0008 0006 fffb fffb 0010 0017 0013 fffe 0002 000a 0004 ffff 0004 0003 ffed fff7 fff7 fff5 ffdc fff1 ffef 000c 
0001 fff7 ffef fffe 0032 fff9 ffcf 0004 0009 000d ffdc ffe5 0007 fffc 0008 ffe8 0002 0008 fffd fffd fff2 fffe ffed 0015 000c 
0041 001a ffe6 fff9 fff2 000e ffdd fff0 000d ffe0 0010 ffff fffb 0028 0008 0013 001c 0021 0003 001d 0009 ffe2 ffe5 fff8 0013 
000e fff7 fff4 000b 000d 000c 0013 0010 0011 fff1 000f 0009 002f 0008 fff4 0006 fff1 000f 001c 0006 ffc1 fff5 0000 0009 0021 
0008 0026 001b 0001 0020 0010 fff5 0027 0004 0016 ffe3 fff3 0004 000f 0002 ffe3 ffee fffd 0020 ffe6 0013 fffa 0005 fffe ffea 
0008 fff3 001a fff6 0000 ffe8 ffea 0007 0019 000a 0008 0030 fff7 0004 fffc 0011 0017 000d fff1 ffe2 0029 001a ffcd ff92 ffbb 
ffe4 fff7 0008 ffe7 0005 fffe 0004 fff6 001b fff4 0000 fffe 0012 ffe8 ffe1 001c 0025 0012 0002 0011 0039 0003 fff4 fff2 fff7 
fff5 fffe 0034 0024 ffee fffa fff6 ffd4 ffed 0001 0010 ffe8 ffe9 ffde 0006 0033 fffc ffff fff7 0007 004a 0007 ffe0 ffe2 ffee 
001c 000d fff3 ffe9 ffdf 002a 0007 0005 fff6 0014 ffe2 ffd4 ffe7 000a 0035 000d fff1 ffe8 0005 001d 0007 0000 0001 0018 000c 
0018 000b 0028 0042 0012 ffde 0002 ffeb 0000 0015 ffbf ffef ffd7 fff8 fffb ffb4 ffde fffa 0021 fff2 ffda ffe2 ffe5 0036 003f 
0009 fffb fff7 ffff fff7 0002 000e fffe fff7 fffc 0014 0024 0018 ffd4 000c 0021 0010 ffe5 fffc 0015 0013 0008 ffe3 ffdf fff8 
fff8 ffda fff9 ffe3 ffda fffa ffea ffe8 0004 0005 ff85 ffc2 fff6 0014 0002 ffa1 ffe3 ffec ffe3 0019 ffd5 ffea fff1 0022 0031 
fffc fff5 fff2 000e 0032 000f ffed 000a 0011 0007 0028 fffe 0004 fffd 0030 0025 0013 fff5 002a 001c 0016 0003 ffe0 fff9 0006 
004c 0036 0017 0044 0014 ffb7 ffeb ffe4 001a 0020 ff76 ffd4 0012 001b 0002 ffc7 fff3 fff8 0027 001f ffe2 0032 001b 000a ffc1 
fff8 ffe4 001d 0002 0012 ffd6 ffe4 fff2 001f 001c ffdf fffb 000b 001f 0011 fffb 000e 0003 fff8 fff9 000f 001d 0014 fff1 ffda 
001d ffff 0011 0009 0004 0010 0016 0015 0020 001d ffaf ffe1 0000 0003 ffff ffc1 ffd1 0004 0006 0001 0005 0007 0022 fffe ffed 
0019 0015 0005 fffb ffed ffd3 ffeb ffee 0006 0008 ffd1 ffd6 fffe fff6 0013 ffe5 fffe 0003 fff6 000c 001f 002b 0024 001b 0006 
fff5 fffa 0015 ffeb 0021 fffa fffd 0013 ffe3 002b 0014 0011 0001 0003 0000 000e 0029 0015 0003 fff3 0019 0033 fff9 ffb4 ffcc 
0035 0019 fff1 ffea ffba 0028 0016 fffd fff6 ffd8 ffec fffa ffe5 fffa 0036 ffc6 fff9 000a fffb 0033 ffeb ffec fffb 0011 0003 
fff0 fffa fff5 0005 ffff fff1 fff1 0002 fffc 0008 0005 fff6 0003 fffd 0001 fff5 0001 0006 fff0 fff5 fffd fff4 fff5 0005 fffb 
0000 0001 fffd 0008 fff8 fff4 fff3 fff9 0000 fffc fffd fff3 0008 ffff fff1 fffd 0006 0007 0002 fff2 0001 fff0 fffe fff7 fffe 
fffe fff3 0008 0007 fffc 0001 fff2 fff6 0001 fff5 fffe fff3 fff6 0005 fff2 fff5 fff6 fffa fff2 0007 fff7 0002 fff3 0001 0000 
fffc 0006 fffe fff8 0007 0005 fffe 0000 fff5 fff9 0005 0002 fffb fffb fff2 fff4 fff9 0002 fff5 fffc 0000 fff3 0002 fffa fff2 
0003 ffff fff2 fffe 0007 fff7 fffd 0005 fffd fffa 0004 0000 fffc 0004 0006 ffff fff8 0007 fff4 0005 fff0 0005 fffe 0004 0005 
fffe fff0 fff5 fff0 0006 fff3 fff6 fff1 fff9 0005 0001 0000 fffd ffff fffa fff1 0001 0000 0007 0007 0000 fff8 0000 0000 fff3 
fffb 0003 fff1 fffd fff3 fffc fff5 0008 ffff fff3 fff5 0000 0000 fff7 fff0 0007 fff1 0007 fff4 0007 fffa fff6 0000 fffd fff3 
fff6 fff3 0003 fff2 fff1 0008 0001 fff9 fff2 0000 fff2 fff5 0001 0007 fffd 0000 0006 0000 0006 fff5 fff3 0003 fff0 0000 fff5 
fffc 0001 fffb fffd ffff fffc fffb fff6 fff5 fff1 0005 ffff 0003 fff9 ffff fff7 fff3 0000 0007 fff1 0004 ffff 0003 fff4 fff2 
0000 fff5 fffc fff5 fff7 fff6 0008 fffc fff1 fffe 0007 fffe fffe 0000 0007 fff4 0005 0001 0002 fffb fffc 0006 fff8 fff6 fffd 
fffc 0007 fff2 fff3 0005 fff4 fffe fff7 fffe fff3 fff4 0000 fffd fffc 0007 0007 fffe fff4 0002 0006 fff9 0007 fff5 0006 fffc 
0008 0008 fff9 fffd fff5 fff4 ffff 0003 ffff fff5 0006 fff0 ffff fff8 fff5 fff1 fff9 fff5 ffff fffd fff4 fff5 fffc 0000 0008 
fff6 fff4 fffb fff4 fff5 fffb 0008 fff9 0003 fffe fff4 fffb fff7 fff4 fffd 0001 0003 fff2 0000 fff1 fffe 0000 fff3 ffff 0004 
0004 fffa fff6 fff5 0003 fff0 fff0 0005 fff3 fff9 fffe fff4 0000 fff1 0007 0006 fff6 fff8 fff4 fffb 0008 ffff 0005 fff1 fffa 
fff7 fff0 0007 fff2 0004 0008 fff7 0006 fff9 fff9 0003 fff3 fff9 0007 fffc fff6 0006 0008 fffc fffc fff5 fffe 0007 0001 0007 
fffb 0004 fff6 fffc fffd 0004 fff9 0004 0007 fff9 fffe fff3 fff3 fff5 fffa fffe fffc fff5 0005 0001 fff8 0007 fffc fff7 fff2 
ffee 001c fff6 ffee ffe6 0004 fff5 ffc2 ff98 ff93 ffd5 ffe2 ffe4 ffa8 ffb9 fffd ffe5 fff5 fffe 0025 0022 fff7 0002 0011 fff6 
fff4 fffb fff5 fff3 0001 fffe fff7 fff9 001e 003e 0035 fffa ffef ffed 0000 0019 0003 ffe6 0000 ffe7 fffc 000b 0014 0002 001e 
002e 0028 fff1 ffd0 ffb1 0045 0036 0005 ffe9 ffd6 0009 000d ffee 000f 0018 ffe1 ffdb fff1 0024 0000 0009 fff3 ffd0 0003 fffb 
003a 004f ffe3 ffef ffd1 002b 001f 0014 ffd3 ff8e 0016 0000 0010 fff9 ffca ffdc 0002 ffec 000e 0003 ffb0 fffc ffd4 0015 ffe9 
003f 0067 0024 ff9f ffbf 003a 001a fff3 ffb2 ffdc 0006 ffe2 0019 0014 000c ffcb 0002 0022 0044 0005 ffd3 ffcf 0016 0039 0000 
ffdc fff4 fff9 0005 000d ffcd 0014 000f 000f 0024 0020 000f 0009 fffa 0016 0017 0023 000c 0013 fff0 fff8 000b 000e fff5 ffe4 
ffed 0000 0019 002f 0044 ffed 0020 0003 fffe fff7 0024 0007 0024 0034 ffd4 0006 0019 0004 0011 000b fff4 0011 0011 fff0 fff3 
003b 0013 0007 0029 ffeb 0011 001b ffe6 ffd7 ff87 0000 ffe6 ffb9 ffd7 ffd3 ffe4 ffc2 0012 0010 001d ffd3 ffcb 0023 0014 ffde 
ffcd ffde 001c 0026 001f ffca ffef 0032 0019 0029 0027 0023 ffee ffea fffc 000d 0002 fff6 fffd ffbc 0003 000b fff5 ffe8 ffef 
0044 0000 ffd6 ffde ffda 002a fff6 ffc5 ffad ffd6 fffc 0012 fff0 fff4 ffce ffd7 000c fff9 fffe fffc ffe8 ffe5 0024 fffe ffff 
ffe1 ffd4 0002 fff2 ffdb 0027 ffe9 002d 000d 001b 0018 001a 0029 0017 0007 0026 001e 000e 0011 0012 0019 002b 002e 0016 fff8 
fffa 0016 0016 0009 ffff 002f 0016 0009 fff9 0023 002e 0014 0002 ffeb fff3 0002 000e fffe fff3 001f ffe5 0025 ffe8 fff2 000b 
ffed 0000 0010 fff0 ffee fff6 0011 0014 000b fff2 fff5 000e 0013 0001 fffb 0040 ffee fffd ffef fffb fff8 0013 0001 ffff 0000 
fff4 000b 0002 ffeb 001b 0005 0016 000b ffd0 000a 002f 001b fffc ffea fffd 0006 fffb ffeb ffed 0014 fffd fff5 fffb ffef fff1 
000d 002d ffe8 ffe5 ffb8 001f fffd ffeb 0017 0009 0024 001c fffc 0014 fffc fffc fff3 fff5 0017 0000 0000 fff6 ffe4 0015 ffee 
ffeb 0044 001b 0010 002e 0019 0014 0017 ffff 0046 0028 0010 fffe ffe1 ffbe 0010 000c fffc fff9 ffda 0006 fff1 fffe ffe5 ffeb 
fff7 0006 fff3 fffb 000b fffe 000f fff7 fffc ffff fff7 0005 fff7 fffb fffb fff7 fffd 0000 0002 0004 fff7 0008 0006 fffe 0005 
0001 0002 fff5 fff4 0000 fff5 0000 0005 0000 0000 0002 fffe fff3 0003 0004 fffb fffe fffa fff4 fff4 fffa 0009 0003 ffff 0007 
0000 0000 fffc fff3 fff9 ffff 0009 0002 0003 fffe 0001 0003 fff9 fffd fffc fff9 fff5 fff9 0003 000b 0000 ffff fffb ffff fff9 
0009 fff9 fffd 0001 0000 fff1 fff6 0006 fff7 0008 fff7 0003 0000 ffff 0005 0000 fffc fff5 fffb 0009 fff3 ffff fff5 0006 000c 
000f 0007 fff6 ffff fffb fff7 0004 fff9 0000 fff4 fffd 000a fff4 0006 0000 fff2 ffef 0008 fff5 fff3 fff1 fffe fff2 fff9 fff8 
0009 fffd 0007 fff6 000b 0001 fffd 0005 fff5 fff3 fffc 0003 fffe 0006 fff6 fff9 fff5 fff2 0001 0008 fffc fff5 fff5 0000 0009 
0003 fffc 0000 0000 0004 0004 0008 0009 fffc fffe fff1 fff6 0005 fff3 fff7 fffa 0002 fff6 fffb fff8 fffd 0008 fff6 fffd fffb 
fffe 0008 fff4 0005 fff8 0002 fff7 0000 0009 000a 0006 0001 0000 fff8 0002 fffe 0009 0007 fff9 fff6 0008 fff9 fffd 0000 fff4 
fff3 0001 fffe 0002 0009 fffa 0009 0007 0002 fffa 0000 0007 fff1 fffa 0004 fff7 0005 0002 fff8 0006 0001 fff2 fff1 0000 0000 
fff9 0001 0009 0007 fff4 ffff 0001 0001 fffe fff8 fff4 0006 ffff fff6 0009 0003 ffff 0000 0000 fff2 0003 0001 0008 0005 fff5 
0005 0002 fff4 fffd 0006 0008 fff9 fff7 fffa 0007 fff6 ffff 0009 fff7 0000 fffc 0005 0007 fff3 fffd fff3 0006 fff5 0007 0002 
0007 ffff 0005 fff5 0001 fff9 0000 fff4 0003 fffd 0009 0006 0003 fff3 0002 0006 fff5 0000 0000 fff7 0008 0000 fffd fffb fff6 
0001 0000 0000 fffb 0002 0003 0009 0009 0001 0002 fff8 0004 000b fffe fff8 fff5 0002 0008 0000 fffa 0001 fffd fffc fffe 0001 
fff6 fff5 fffc fff3 fff8 fff9 0005 0007 fff8 fff2 fff5 fff7 fffe fffd fff8 fffd ffff fff3 fffd fffe 0006 0000 fff3 fff3 0003 
0003 fffd 0001 fff3 0000 ffff fffa 0002 0007 fffd fff6 fff2 fff8 fff8 0006 0006 fff7 0007 fffd fffe 0008 0001 fff8 0005 fffb 
fff3 fffd fffd 0004 0004 fff6 fffb 0001 0004 fff5 fff4 0001 fff7 fff9 fffd 0008 fffe 0001 fff9 0006 fffb fff5 0001 0000 fffe 
fffe 0017 0028 0008 fffd fffd fff2 ffea 0002 000d ffff 002d 0017 000c ffe2 0015 0008 ffeb fff5 ffb8 ffd8 ffee fffa ffee 001b 
ffcc fff2 0011 0004 001d 0005 0016 fffc 000d 0013 002b fffb fff4 000b 0016 000b fffe fffa 0017 fff5 fff0 fffb 0001 fff0 ffc9 
ffed fff3 0010 fff8 fff5 0008 0006 0020 fff2 0000 000f 0018 0004 ffe5 ffe9 fff5 0017 000e 0000 0023 ffe8 fff7 fff6 ffed 0027 
fff7 ffdc ffef 0000 001f 0005 0019 ffea fff1 fffd 0004 0026 0003 001e 0019 ffeb 0017 001d 0000 ffe9 0062 0004 fff8 fffa 000c 
fffd 000e 0016 0005 fffb 0022 0009 0002 fff3 0008 0004 fffe ffe0 ffed 000a 000f fff9 0006 000f fff0 0020 0016 003b 0048 0033 
ffff fffa 0010 000b 0029 0004 ffe3 0003 000f 000d fff4 fff7 fffc fffe fff8 0006 0014 ffed fffe ffe4 0006 ffe9 ffec 000a ffef 
fffa fffe 001f fff6 ffee 0000 0020 fffe ffc7 ffb7 fffe 0002 0003 ffd1 ffe6 ffd3 ffd6 ffe6 fff4 fff6 0008 002f 0020 fffe 0003 
0010 000b 0010 0008 001e 001b fffc ffe7 fff3 fffd 0018 fff3 0005 0004 ffe6 0002 fffe ffff ffe9 ffa0 0004 001e fffd 000e 0022 
ffdb ffef ffea fffc 0028 fff2 0005 0008 0011 0007 ffeb ffdf ffde 001a 0032 fffe fff4 fffa 0004 ffd5 ffe3 ffdf ffe1 ffc3 ffc5 
fff1 000e 000c fff8 0000 0000 0009 0007 ffeb 002c 0007 000a 0013 fff2 ffff 0006 0016 fff4 fff3 0007 0009 000b fff9 0017 003e 
fffe ffef fff2 fff9 fffc ffe8 ffeb ffe7 ffe5 fff3 ffd2 ffe3 000c ffff 0000 000a ffcb fffa 0028 0015 0008 ffe6 fff7 0036 0029 
000f fff5 000c 000d 0013 fffe 0000 000a fff8 0000 0013 0008 0000 0018 0021 ffda fffe 0010 ffe2 fff9 0014 0009 0012 ffe1 ffca 
fff3 000e 0001 000c 0006 fffa fffa 0002 ffe9 0000 0014 fffc 0009 ffe7 ffe1 ffe1 ffe2 ffff 0009 0012 0014 fff6 fff6 000c 000e 
ffeb 0001 000e 0019 0002 ffed 0009 ffec 0010 0009 ffef 0003 fff8 fff4 fff5 fff3 ffee ffdb fff0 ffed 0017 002c 000c 001d fff0 
ffeb 0014 000d 0001 fffd fffb 0015 0009 fff2 fffb 0009 000d 0011 fff7 ffeb 0015 000d ffeb 0009 0010 000e 001d 0019 ffe7 0003 
0003 0005 ffef 0018 000b ffde ffe8 fff9 ffe7 002f ffed 0017 fff4 ffff 0008 0000 0011 ffea ffc5 ffad ffe6 ffe7 000b fff9 ffd0 
fff6 fff0 0002 fff5 ffe3 ffec ffec ffeb fff1 ffee fff1 ffde fff3 ffea 000c ffe6 ffec ffef ffec 0002 fff3 fff6 0004 fff8 fff2 
ffe9 ffef ffe8 ffe5 fff9 fffb fff8 fff9 fff6 fffb ffec fff6 ffe9 fff0 ffef ffed ffe4 0000 fff7 fff2 ffe1 ffec ffea fffa 0002 
0004 fffa fff3 fffc ffee ffed 000d fff6 fff4 fff7 ffee fff8 fff7 ffe8 ffef ffed 0002 0002 ffee fff9 ffec ffec fff4 0015 fffc 
fff3 fffc 0000 fff6 fffc 0000 fffa 0013 ffff fff5 0000 ffed fff7 fff9 0005 fffd fff3 fffa ffe8 fffa 000a fffc fff9 ffeb 0003 
0001 0000 0007 0004 0008 fffc 0000 fffd 0029 fff9 fffe 0007 ffe8 0010 fffa fff9 000a ffe4 fff9 ffef 0003 0003 fff5 fff6 fff5 
ffe8 fffa ffea fff6 ffe5 fff7 fff8 0002 fff4 fffa ffe4 fffd fff2 fffe ffee ffec fffd ffee 0002 fff3 ffec fff9 ffed fff3 fff3 
fff2 ffe9 ffdf fff7 ffea ffeb fff5 fff3 0007 0000 fff2 ffed 0000 fffa ffee fff8 fff2 0005 ffff ffe8 fff5 fff2 ffee fff8 ffe4 
ffef 0000 fffb fff5 fff8 fffc fff8 fff2 0000 fff0 ffe0 fff9 fffa fff9 0009 ffe6 fff9 fff8 fff3 fff9 fffe 0000 ffff fffe ffee 
ffed fff3 ffdf ffef fff3 fff9 fffa ffe7 fff1 ffff fffb fff6 fff9 fffc ffed ffe5 ffea fff4 fff2 ffe4 ffeb fff0 fffb fff7 ffef 
fff4 0001 ffe8 ffee ffec fff6 0001 ffe2 ffe2 ffef fff6 fff1 fff8 ffec ffff fffd fff5 ffec fff4 ffeb ffea fff0 fff7 ffed fff7 
ffea fff8 fff6 fffa fff8 fffb fff5 fffa fffa ffed fffb fff6 fff4 000b fff9 ffe4 fff2 fff1 fffc ffed ffe2 ffed ffea fffd fff1 
fff9 0008 0000 ffff ffeb fffd fffb fffd ffed ffe3 ffec ffe6 ffec fff8 ffff ffed ffe9 0000 0004 ffff fff7 fff4 fffd fff1 fff2 
ffe8 fff2 fff2 fffd fff4 0000 fff4 fff1 fffa ffe9 fff0 ffee fff6 000d ffea ffe3 ffde ffee fff7 fff9 ffea fff2 fff9 0004 ffe7 
fff2 fff1 ffe8 fff6 ffe9 fff4 fffc fff7 ffe4 ffe3 fff6 fffd ffef ffea ffea fff2 fffd fff4 0002 fffe fff6 fff8 fff0 fff7 0000 
fffb 0001 fffc fff0 fffc ffe9 ffff fffe fff0 ffee ffe7 fffb ffee fff4 ffef fff6 fff8 ffff fffe fffa ffef ffe5 ffed fff9 fff4 
fff6 ffe0 ffe4 fff0 ffe5 fff1 fff9 0003 ffe1 ffe1 fff8 fff3 fffc fff2 fff9 fff5 fffb fffb fff7 0002 ffee fff9 ffe9 ffed fffb 
0024 000b 0012 000d 0000 ffe3 ffde ffc4 ffbf ffca ffe3 fff4 ffed ffff 0034 001b 0026 0019 fff0 0019 0019 0029 0007 fff5 ffd3 
fff8 ffdd ffcd 0005 ffff 0018 0007 0003 ffff 0026 003b 001f 0009 ffe7 001a ffe2 ffe3 fff8 ffe6 fff2 0006 0000 000c 0000 000b 
000a 0013 ffd7 ffcb ffe8 0033 0031 fff4 fff4 ffe4 fffc 001b 0004 fffa 002f ffdd fff3 0002 0002 fff0 fff8 0009 ffe2 0006 ffc8 
0010 fffa ffe6 000b ffe3 0033 0000 000e ffe8 ffcc fffe 0000 0002 fff8 fff6 ffd6 0005 001a 0006 0002 ffd3 0056 001b fffe ffe9 
003e 0033 0003 ffac ffd7 0035 0022 ffcc ffad ffe3 0019 fffb ffe4 000a fffb 0014 0008 fffd 0022 fff1 0005 002b fff9 0027 fff8 
ffe2 fff5 fffb fffd 0025 ffdf fff0 fffe 0000 0007 0016 0031 0021 0000 000b 0011 fffd 0003 fff2 ffcf fff3 ffeb 001c 0003 fff0 
0008 0008 0000 ffd0 fffd ffea ffd0 ffe9 ffe0 ffcf fffc ffef 0004 001a 000b ffff 002b 002c 001a 001f ffec 0009 fffc 0013 ffeb 
0029 0000 000c 0015 0007 0025 0011 ffe8 ffc9 ffe8 ffe9 0014 ffe1 ffeb 0021 fff3 0022 001b 0002 0012 001b 000e 0009 fff4 ffed 
ffbe ffc9 0000 0032 0034 ffed ffe7 001d 0015 fffa 0024 0012 ffff 000b 0048 0015 000e 0011 0032 0004 ffd9 ffe7 ffed fff4 ffef 
003b ffdf fff9 0008 fff0 0015 ffe5 ffe5 ffd2 fff0 fff5 0009 ffee ffff ffd8 fff2 001a 000c 0015 ffe9 0005 001c ffff fffc ffe4 
ffca ffea fffd ffd6 ffd8 0002 ffe1 fff8 ffe4 0014 001f 0024 0000 ffd6 ffff 0021 fff6 ffe1 0004 ffe7 ffde ffe1 fff5 000a 0011 
0000 fff6 0009 fff8 fffa 0040 003b 0014 fff8 0012 0014 0018 fffe ffe9 fffd fff3 0000 ffdf 0017 fff0 fff6 0010 fff9 ffeb ffee 
fff4 0009 0003 ffdf fff7 000b ffff 0008 0004 0000 0018 002e 0024 ffff fffd 0000 0002 0003 ffdd fffb fff7 0009 0001 ffed 001d 
ffed 0009 0012 fff0 000a 0024 0029 001a fffc 001b 002e 002b 0020 001a fffa ffec ffe7 ffd9 fff6 0015 0004 0017 0012 0004 fffd 
0000 0000 ffd0 fff0 ffde 0018 0022 0000 fff8 0008 0026 fff4 0002 fffe 0002 ffeb ffe8 ffeb 0014 0005 fffc ffe8 fff0 fffc fff5 
0000 0003 0010 0000 004b 0008 fffe fffd 001f 000e 002b 002d 0020 0037 0034 ffef fffa fff9 001f ffe3 ffec fff2 ffed 0000 fff6 
ffe1 fff6 0002 001b 0015 fff8 ffe4 ffe1 fff9 ffe8 ffef ffff ffea fff1 ffed ffec 001d 0004 001d 0018 fff9 000d 0030 0028 001a 
ffc8 ffd4 fff4 0007 004d 000c 000b fff8 fffc 001f 0002 fffb fff7 000e 0014 fff4 fff7 ffe2 ffbb ffbf ffef 000b ffee ffcc ffd3 
ffcd ffec ffee 0016 fff5 ffec 0026 0016 000d fffa ffe4 001c 0009 0017 0007 0000 fff1 fffb 0017 fff4 0009 ffe9 ffe8 fff0 ff94 
fff4 ffe6 ffbf fff1 fffe 0019 000d 0001 ffea ffcb 002e 000c 0002 ffe9 0008 ffeb 0016 000c 0007 0012 0022 fff9 0014 0027 ffe4 
0002 0002 ffc6 ffa8 ffe1 0018 000b ffea ffd6 fffe 0020 ffeb ffe5 fffe 000b 0011 ffe2 0004 000a 0026 0021 fff3 0021 0028 002f 
fffc fff5 fff3 000b 0044 0009 fffb 0000 fff5 000f ffe4 ffee 0004 fff8 0009 0006 ffff ffdb ffeb ffce 0001 fffa ffff ffdf ffde 
001e 0039 002b ffd8 ffb3 0000 fff5 fffb ffd1 ffc4 001d fff6 ffe2 ffe2 ffe7 000f 000a ffe0 ffe8 0000 0026 0033 0014 000d 0039 
ffee 0000 001b 000a ffe9 0002 0017 fff0 ffed ffdd 0014 000a ffd9 ffcb fff7 0011 0000 ffeb fff1 ffef 0017 000c 0004 001f ffea 
ff9c ffed 0013 fffd 0000 fffc fff9 fffd 0004 001f 0015 0011 fff9 000c 0001 ffef fff1 ffcd ffe3 ffef fffa fffa 000a 0002 000f 
fff0 ffe6 fff8 fffe fff5 0019 fff6 ffff fffb fff2 0017 0009 fff4 0015 000f 0007 0002 0015 003b fff4 001c 0006 0014 0009 fff9 
fff3 fff1 fff0 ffd3 ffe7 ffec ffcb fffc ffef ffe4 0021 0010 ffec 0003 fffa 004e 003e 0024 0024 fff2 0014 002a 0028 0039 002f 
ffe6 fff6 fffb ffea 0018 0005 fffe 000a 0008 000a 0000 ffef fffe 000b 000b ffe9 0005 fff9 0000 ffe1 000c 0009 fffd fff2 ffce 
fff4 fff7 0004 0006 0023 ffce ffe6 fffc ffe8 ffd1 ffeb ffed fff9 ffe4 000c 0015 0010 0002 ffde ffec 0014 0016 000e fff8 0008 
ffe8 ffea 0019 001f 0022 fff4 fff8 000a 000e 000b ffff 0006 ffe3 ffd9 fffa fff7 fff5 fffe ffe7 fff3 0018 0011 0008 ffec fff3 
ffe1 ffef ffe4 0014 0000 fffc 001b 000e 0012 fffc fff1 0016 0005 0014 ffff fff2 0012 0002 0017 0008 0002 0014 fffa ffe5 ffc1 
ffd7 ffc3 ffd9 001d 0042 fff5 ffe6 fff6 ffed 000d fffc ffef ffc8 fff3 0001 fffd fff5 fff3 ffe3 ffe4 0023 0011 0005 fff4 ffe1 
0002 0000 fff1 fff6 000f ffff 0000 fffd fff8 fff6 0000 0000 0004 0003 fffc ffee 0002 0000 fffb ffed ffee 0001 0000 fffd fff4 
fff8 fff5 0000 fffe 000e fff5 fff6 0007 0002 0004 fff1 0003 fffc 0008 fffd fff8 fff5 fffa fff1 0006 0003 fff0 fffc 0000 ffff 
fff2 0004 fff8 fffd fff1 fffc 0000 fffc 0002 0001 fff4 0004 fffe fffe fff4 0003 fff3 0008 fff6 fffa 0000 0003 0000 ffe8 fffe 
fff8 0004 0006 fffb fff2 fff3 ffee 0001 0006 fff8 fff9 0000 0003 0002 fff8 0002 0005 fff3 0008 fffc 0001 0002 fff5 ffff 0005 
fff0 0003 fff5 0001 fff1 ffee fff6 0000 0000 0002 fffe fff5 0002 fff6 ffff fff5 fffe fffb 0001 fff7 fff4 0005 fff5 fffb 0002 
0005 000a fff4 0001 0000 fff3 fffc fff4 ffff fff6 fffc 0000 fff5 fff5 0001 0008 000a 0002 0002 fff0 0004 0008 fffd fff6 0006 
fffb fff7 0008 fff8 ffff fffd fff7 0006 fff7 0001 fffa fff4 ffff 0001 0004 0000 fffe fffd fff7 0001 fffe 0001 fff7 0007 0006 
0000 fff2 0002 0002 fff6 0000 fff5 0008 fff0 fff7 fff7 0004 ffe8 fff0 ffea fff5 ffef 0000 ffff fffd fff2 fff9 fff8 fff3 fffa 
fff5 0009 0005 0000 fff3 0002 fffd fffe 0001 fffe fff1 0001 fff3 fffe 0004 ffff ffff 0006 fff7 fff9 0006 0002 0006 0000 fff9 
0007 fff8 fffc fff7 fffd fff7 fff7 fff6 fffd fffe fffa fff5 fff5 fffc 0002 fff7 fff1 0005 0006 fff4 fff6 fffa 0004 fff4 0000 
fff5 ffff ffff fff6 fff5 fffa 0009 fffc fff9 0001 0003 fffe fffc 0000 fffc 0001 0001 0007 0000 0008 0007 ffff 0007 0006 0004 
0006 0009 0007 fff5 0001 fffc fff8 0000 fff5 fff8 ffff fffe fffe 0000 0000 0007 fff9 fffd 0004 fffe 0008 0004 fff7 0007 fffd 
0001 fff1 fff3 fff1 0000 fffe 0002 fff4 0004 0005 0010 fff9 0005 0001 fff3 fff3 0004 fff4 fffc fff3 fff8 fff3 fffa 0006 0007 
fff3 0008 fffa 0005 0003 0009 0002 fff2 ffff 0000 0002 fff5 0000 0001 fff1 fffb 0004 0001 0000 0000 fffb 0000 0005 fffd fffa 
0000 0005 fffc fff9 fffa fff8 fff8 fffe 0008 fffc fffa 0008 0008 fff6 0002 fffb fff6 fff5 fffb fff9 fff7 0000 0004 fffb 0000 
000e 000c fff9 0003 fffb 0006 0007 fffa fffc 0006 0004 fffb fff4 0000 0002 000e 0003 fffa fffc fff1 0007 0001 fff9 fffa fffc 
fffd ffef fff6 ffee fffd 0001 0000 0004 fff3 fff7 fff1 fff4 fff7 fffa 0005 fffa fffc fffc fff3 0000 fff6 ffef fff5 0004 0000 
0001 0000 fff4 fff8 fff6 0001 0003 fff1 fffd fff0 fff1 fff4 fff8 fff9 fff9 0003 0003 fff4 ffef 0000 0003 fffb fff5 ffff fff8 
0000 fffb fff7 0003 fffe fff0 0000 fff5 fff6 fffb 0000 fff8 fffc fff3 0000 ffff fff7 ffff fffc fffa fff4 fff3 fffb 0005 fff9 
0008 ffee fffc 0008 fffb fff8 0004 fff6 ffef 0005 fff9 0002 fffa fffa fff7 0000 0002 fff3 0001 fff2 fffd fff5 fff5 fff9 0008 
0000 fff1 0003 fffc 000a fffd fff7 0002 0006 fff1 0003 fff0 fff7 fffa 0003 0000 fffa 0000 ffee fff0 000c fff8 000b fff8 fffd 
fff0 fff7 fff6 fff8 fffa ffee 0004 fffe fff9 fff6 ffff fff3 fff3 fffa fff6 fffb fffb fffe fff3 fff5 0005 fff0 fff8 fffa fff4 
0006 0005 ffee fff6 fffd fff9 ffff fff0 fffe fff7 fffc fff9 fff6 fff6 0005 fffa fff6 fff5 fffd fffd 0001 fff5 fffd fff6 fff4 
fff2 fff0 0005 0004 fffd fff4 fff9 fff1 0006 fffa fff5 ffee 0006 fff2 0000 fffe 0006 0000 fff6 0005 0001 fffb fffc fff8 0008 
fff5 000b fff7 0001 0004 0008 0001 fffa 0007 fff6 fff9 fff6 0004 0000 fffd 0003 0001 ffee fff6 ffee fff3 ffef ffee 0000 fff3 
0003 fff8 fffc fff1 0005 fff1 fff1 0005 fff4 fff6 fff9 ffef fff0 0005 fffa 0001 fff9 0003 fffe fff0 fffb fff5 0000 0003 fff7 
fff3 fff3 0002 fff8 fffb 0004 ffff fff7 0003 fffc fffc fff9 fff2 fff6 fff4 000c 0000 0000 fffe fff6 0000 0001 0003 fff1 fff9 
0000 fff3 0002 ffef fff0 ffef fff7 fff8 fff0 fff8 ffef 0002 0003 fff4 0005 fffa fffb 0000 fff0 fff2 0004 0005 0000 fffb 0005 
0003 fff8 fffe fff0 fff3 fffe fff6 fff5 fffb fffa fff0 fff0 fffd 0000 fffe ffff 0005 0002 0000 0003 0002 0003 fff1 fff9 ffff 
fffb fffb fffe fff1 ffff 0007 fff7 fffc fff3 fff3 fff1 fff7 0005 fffb fff0 fff4 0003 0001 0002 fff0 ffef 0001 fffc fff1 fffc 
0006 0004 fff5 fff5 fffb 0006 fffe 0003 0006 0000 fff2 fffb ffee fff5 fff4 fff8 fff7 fff2 fff4 fffa fff7 fffd 0000 fff7 fff0 
fff6 0002 fffa 0005 0000 fff4 fff5 0006 fffd ffef 0005 0002 0008 0000 fffb fff0 fff9 fff5 fffc 0004 fff1 fffd 0000 fff0 0002 
fffb fff8 0000 000b 0009 fff5 fff1 0001 000d fff9 0008 0003 000c 0008 fffa 0008 fffa fffd 0000 0004 fff5 0007 0008 0006 0002 
fffa fff1 fffb 0000 fff4 fff9 fff6 0001 fffc ffff 0000 0003 fffb fffd fff9 0001 fff9 fff6 fff4 fff3 0004 fff1 0007 0003 0000 
0005 0002 fff8 fff2 fff8 fff4 fff7 0002 fffe fffa 0008 ffff 0000 fff6 0004 fff3 fffb 0006 fff5 0006 000e 0009 fff8 fffc 0002 
fff2 0003 fffc fff9 0003 fffd 0007 fffb fff2 fff9 fffa 0005 0001 fff6 ffff ffff fff3 fffe 0000 fff3 ffff fff7 fff7 fff2 fffe 
fff9 fffe fffb 0006 fffc fff7 000e 0007 0001 fff6 0000 000d fff2 0001 fff9 0000 000d fffb 0009 0000 fff8 0004 0003 0006 0000 
0006 ffff 0007 fff5 fff1 fff3 fffd fff1 fff6 0000 0006 0000 fff9 fff1 fffd 0003 0000 0005 0004 0000 0005 0007 0008 fff2 0000 
fff9 fff6 fff7 0003 0000 fffa fff4 fffb 0000 0002 0000 fff5 0005 fff8 fff5 fffa 0000 fff5 ffff fff3 fff9 fff8 fff3 fffd 0006 
fff8 0005 fff8 fff8 fff9 fffa fffd fffc fff9 0001 fff4 fff9 0000 fff5 000a fffd 0005 fff3 fffc fffd 0006 0000 fffd fffd 0003 
0004 0000 0006 fff5 0000 0009 fff4 fffb fff8 fff7 fffe 0007 0007 0000 fff7 fff3 fff3 0001 fff4 0009 0006 0001 fff7 0000 fffa 
0007 fffc 0007 fff6 0001 fff9 fff9 0004 fff7 fffd 0008 ffff fff3 fffe 0005 fff4 0001 fff7 ffff 0000 0009 0000 fffc fff2 fffa 
fffc 0009 fffa fff4 0008 fff2 0007 0005 fffc 0009 fff5 0008 fff6 fff6 0004 fff5 fffc 0007 ffff 0004 fffa fffb fff9 0002 fff4 
fff2 0007 fff8 fff6 0009 ffff 0005 0000 fff5 fffd fffb fff7 0002 0003 fff1 0004 0001 fffe 0000 0008 0001 fff8 fff5 fffa fff7 
0008 fff5 fff6 fffd fffc 0004 fff2 fffe 0000 fff7 fff4 0003 0005 0002 0009 fffb 000b 0007 000d fff9 0005 fffa fff7 fff5 fffc 
fff4 fff7 fff1 fffc fff1 0006 fff5 0006 0000 0008 0001 ffff 0005 fffe 0003 0003 0004 fffd 0008 fffa fffd 0004 fff8 fff7 fffc 
0000 fffe fffe fffc fff7 fff6 fff2 0009 fffa 0000 fff5 fff2 fff9 fff6 0000 0001 0000 fff5 fff7 fff8 fff7 0007 fffc 0004 fff8 
fff3 fff4 0002 0005 fff1 fff1 0000 fff9 0005 fff9 fff9 0000 0006 0002 fffb 0002 0000 fffd 0003 0000 fff2 0005 fffc fffb fffd 
000c fff4 fff6 0006 0009 0000 0000 fff2 fffe 0004 fff8 0002 fff5 fff1 0008 fffa 0004 fff6 fffc fffd 0006 0002 fffe fff5 fffc 
fff4 fff7 fff7 fff3 0006 fff9 fff7 fffb fffe fffd 0006 fffc ffff ffff 0008 0000 fffe fff5 fff5 0005 0005 0007 0002 fff4 fff6 
fffd 0000 fff5 0004 0006 fff2 0008 0002 ffff 0000 fff1 0009 fffa fff5 0009 0008 0006 ffff fff5 0002 0009 0008 fff8 fffa 0004 
0007 0006 0000 fff5 0000 fffa fff3 0008 fffe 0003 0000 fff8 0003 0002 0007 0005 fffb fff1 fff3 0000 fff2 fff2 fff4 fff3 0006 
fffd 0008 0005 fffe 0008 0006 fff4 fffe fff2 fff6 fff4 fffb fffe fff3 fffa fffd fffd fff4 fffd 0000 0007 0007 0007 0000 0009 
0001 fff1 fff8 fff2 fffe 0002 fff2 fff9 fffa 0000 0007 fff3 fff6 fffb 0002 fffa ffff 0005 0002 fff3 fff4 0008 fff8 ffff fff6 
0004 fffe 0000 fff2 fff6 fffc fff1 fff8 0008 0007 fff3 fff7 fffb 0008 fffb fffe fff9 fff9 fffa fffe 0006 0002 0000 0004 fffe 
000b fff5 fff9 fff2 fff2 0007 0006 fffb 000c 0009 0004 0003 0008 0003 0001 000b 0007 fffc fff1 fff8 0000 0000 ffff fffd 0007 
0004 fff8 fff3 0003 fffb fffb fff2 fff3 0004 0006 0008 fff8 fff7 fff7 0004 0001 0004 fffd fffe fff6 0001 fffb fff2 fffe fff7 
