000a 0001 0001 0021 0009 fff1 0001 001b 000e 0006 ffef fff8 0003 0008 0007 ffff 000e fff5 fffc 0000 ffe5 0004 fff8 fffa fff7 fff9 0005 fff7 0017 fff1 0002 fffa 0002 0000 0004 0007 0005 000c 0006 fff7 fff5 fff4 0017 ffed 0008 0018 0000 ffee fff9 fff8 fffc 0005 fffa fffe fff8 fffb 000a fff5 000b 0008 000f 0003 fff4 0000 000a 000f 000f fff8 fff5 000d 0001 ffec 0003 0016 fffa 0008 fff1 0011 000a 0011 fff8 0006 fff2 fff9 fffc 0015 0008 fffb 000f fffc fff7 fff4 0014 001a 0005 0009 0012 fff5 fff3 0006 ffea fff1 fff9 0005 fffe 000b 0013 ffe5 000f 0007 fff9 000d fff3 fff4 0011 fffc fff9 001b 0004 000a 