0006
0006
ffeb
0002
0011
0015
fff9
ffef
fff9
0011
fff6
fff9
000a
0012
ffdb
fffa
fff5
0011
0009
0003
fff8
fff8
ffe4
0013
000c
000f
ffe3
0007
ffd1
fff5
0002
fff7
0043
ffe2
0012
ffe8
0011
ffe2
0000
0007
ffe2
fffd
fff1
0005
fffb
ffdf
ffec
0002
0000
0013
ffff
0000
fff6
0007
ffec
0000
ffec
fff7
ffef
0019
fffb
0010
0002
0004
0019
ffeb
fffb
0011
fff7
fff9
fffb
0000
ffe6
ffe3
0000
fff7
fff7
ffe5
0012
ffe9
ffe4
000e
0001
fff6
ffe8
ffdb
fffe
ffe1
0002
ffed
ffe6
fff7
fff8
fff3
ffed
fffa
ffee
0015
fff9
000f
ffe3
ffee
fff1
fffd
001e
ffef
000b
002f
ffe8
ffe3
0002
0006
000d
0026
ffef
0000
0001
ffec
0011
000f
0000
0000
0000
0000
0000
0000
0000
0000
fff5
ffec
0011
fff1
fff1
ffec
fffc
0000
ffeb
0009
0000
ffea
ffe1
ffff
ffe3
0006
fff5
0002
0004
0002
0010
ffe1
0003
0002
fff7
0004
fff3
0015
fffb
fff3
0006
0001
0005
ffde
0007
fffe
fff5
0002
ffec
ffea
0009
ffed
0008
fff8
ffe9
fffc
fffa
fff0
fff4
0000
0001
ffe5
0003
0000
ffef
fff2
ffef
0000
ffff
0001
ffeb
ffdc
ffe8
0000
fff6
0006
ffe8
ffea
fff7
0004
fffd
000a
fff4
fffb
000a
0012
0007
ffe3
fffb
ffed
ffe7
fffa
fffa
ffff
000d
ffec
ffe9
000d
0009
ffeb
ffe8
fff5
fff9
ffdb
ffef
ffea
ffe8
0009
000a
ffe8
fffc
0005
fffc
0008
fffd
ffea
ffee
fff2
0003
fff8
fffc
fffb
fff7
ffff
fff0
ffe4
0014
fffd
0001
ffe7
0000
0000
0000
0000
0000
0000
0000
0000
ffeb
0010
0008
fffb
ffe5
fff7
ffeb
ffff
001f
000e
fff6
fff5
0015
ffee
ffef
fffe
ffcf
ffeb
ffed
0000
fff9
ffe3
ff9f
fff9
ffd9
0008
0000
0000
ffc1
ffd3
ffea
0025
ffbe
fff4
0011
000d
002f
ffee
0016
000d
003d
fffb
0013
fff8
ffd3
fff0
fff6
0004
ffed
0015
0014
000f
0007
000d
ffd1
ffe4
ffec
0015
0004
000a
ffff
ffe5
fff9
0028
ffbe
000d
0007
0004
fff9
0045
001a
000c
ffb4
0017
ffca
fff9
0015
0020
0001
ffda
fffb
fff0
fff9
0013
fff1
0006
001b
0018
ffc0
ffe3
0006
0008
fff1
ffb9
ffe1
0025
ffab
ffed
0000
0031
fff0
fff6
0022
0021
001a
0007
0018
ffe2
006c
0000
000a
ffbb
0027
001c
0008
fffe
ffec
fffb
ffff
fffc
0000
0000
0000
0000
0000
0000
0000
0000
ffc4
0006
ffe0
000e
fff7
0006
0001
0013
fff6
ffd6
001d
ffd5
0005
000c
ffed
0010
0005
fffb
ffef
0009
fffa
0017
0005
fff1
ffdb
ffec
0010
fffa
0006
000f
002e
0014
fff0
001a
000f
fffa
fff7
0003
0018
fffb
ffd0
0018
fffd
0013
ffc1
001d
ffe7
ffed
0012
fff4
001a
ffe8
ffee
0004
0017
0017
fff9
ffeb
0010
ffd9
0016
ffe1
0029
0005
0000
fff9
0032
0015
0011
0014
000b
ffe0
000f
ffed
0003
000d
ffed
fff3
ffc3
0014
fffe
000b
ffd0
000b
ffe5
ffec
fffb
ffe9
000a
fff1
001a
0000
ffff
0008
0024
001c
003b
fffc
0011
ffe4
0008
ffff
0006
ffb5
0015
0019
0022
000e
0038
0016
0007
0009
0009
0037
0000
0013
ffff
000b
0011
0019
0000
0000
0000
0000
0000
0000
0000
0000
fffd
0000
0004
fffd
000e
fff0
000d
ffe7
0003
ffea
fff4
fff2
fffc
0017
fffa
000d
fff3
0010
0012
ffee
ffed
ffe9
fff6
0015
ffde
fff9
000a
000b
fffe
fff7
fffa
ffe9
ffff
ffe7
0013
fff2
ffe9
0008
ffff
0008
fff8
0012
ffe8
0018
0006
000c
0000
ffef
000d
ffea
ffeb
000c
ffee
fffc
ffed
fff4
ffee
000c
fff0
fff1
fff3
ffe7
0000
0006
ffee
fffd
fff9
0019
fffb
ffea
0009
000c
ffff
0007
0001
ffee
fff4
ffeb
fff2
0001
ffef
0003
fff6
ffec
ffeb
0000
0001
ffe8
fff3
fff0
fffa
0001
000e
0000
ffe5
0002
0000
fff0
0018
0000
ffe7
fff6
ffec
fffe
fff3
ffdd
ffda
000d
fff1
fff5
ffed
ffe5
fff4
000b
ffdd
fff8
fffb
000f
000b
ffdf
0000
0000
0000
0000
0000
0000
0000
0000
fff3
fff4
fffc
ffee
0007
0016
0016
ffef
fff1
fff8
0002
ffd1
fffb
000f
ffd2
000e
ffe1
ffe9
0011
0001
0000
fff5
0011
000a
ffe4
0007
0002
fffe
001d
ffcf
000a
000d
002f
ffc8
ffee
ffe2
fff6
ffd4
fff4
000e
ffe9
fffe
ffd6
0009
ffed
0014
ffeb
fffd
fffc
0006
fff5
ffea
fff9
0010
ffdc
ffd5
fff5
0007
0000
0010
fff0
fffb
fff5
ffdf
0005
ffdb
0007
fffd
0013
ffce
fff5
ffec
ffea
ffe9
0006
ffed
0003
ffee
ffee
fff7
fff7
0016
000d
0016
0011
ffeb
0006
ffe1
fffa
0011
ffe9
fff0
fff3
ffd1
ffdc
ffd9
ffeb
0005
fffd
fffa
ffcb
ffed
0005
0010
ffff
fff1
ffde
0000
fff6
0004
0004
ffe7
ffe5
001b
0015
ffe5
000f
fff7
ffef
fff1
0000
0000
0000
0000
0000
0000
0000
0000
000a
000f
000d
ffeb
fffd
0013
fff8
ffe1
ffe8
0018
001a
0006
0010
0017
fff7
0000
002a
ffed
0003
fff6
0025
0014
001e
000b
000f
0019
fff3
0005
0020
001c
fffe
ffe5
0014
ffe1
000b
002b
0013
ffe1
ffeb
ffeb
fffb
0007
fff1
fffa
0019
ffde
ffe9
0012
000f
0000
fffa
0002
fff3
ffea
fff1
ffe1
0003
ffed
0029
0016
fff5
000e
0024
002b
fff9
0018
fffe
0006
0009
fffc
ffe6
ffdb
0002
fffa
fffb
ffea
fff4
ffe6
0008
fff9
001d
fff2
001e
fffb
ffdf
0005
0024
0020
0007
0009
0019
fff2
ffec
0002
fff8
0007
0028
000b
fff1
0006
0011
0007
0004
fffe
fff5
001e
0000
0018
001f
0010
fff4
ffe1
0014
0071
ffff
0004
0014
001c
fffb
0022
0000
0000
0000
0000
0000
0000
0000
0000
ffe9
fff9
ffe6
002d
000a
0002
fff8
000c
fffe
fff3
000b
0026
ffe9
0005
003b
fff6
0027
0009
ffef
fffc
0019
000b
001c
ffee
ffe9
0011
000a
000f
002d
0006
fff9
0005
ffff
000c
0005
0014
ffd9
0025
0016
000a
0005
0006
fff3
0004
000b
000b
0005
fff0
0013
fff6
fff1
fffe
0002
0005
0032
002c
0006
000e
ffe9
ffee
ffdb
001c
ffff
ffd5
003a
001b
0029
0015
fff8
0000
fff0
002b
fff6
ffe4
001d
0001
ffec
0013
0016
fffd
0016
0000
0018
0014
0013
0003
fffa
fff9
0015
ffe3
fffc
000c
ffff
0026
0013
ffe5
0016
0001
ffe8
fffa
fff4
000d
fffa
fffc
fff5
ffff
0015
fff4
ffba
0007
fff8
ffe8
ffe2
0006
0022
ffeb
fff7
0018
fff0
ffed
0000
0000
0000
0000
0000
0000
0000
0000
001d
fffe
0012
001a
0016
000e
fffb
0027
0011
fffd
fff5
ffd6
000c
fff9
fffd
0005
ffc1
fffc
fff6
003c
fff9
ffe7
fffb
0006
0004
0017
000a
fff6
0001
ffd8
fffc
0005
ffe6
ffed
0008
0000
0015
fff2
001e
0006
ffb1
000a
000f
0005
ffe0
001f
000e
fff0
000c
0004
fff0
fffa
0010
0012
000d
ffb9
0005
ffef
000d
002b
fff9
0010
000f
ffc9
ffe1
ffe9
ffeb
000f
fffb
000b
ffea
000f
0004
0044
fff3
0000
fff6
002c
001c
000d
0039
000e
0016
ffeb
0006
ffff
001c
000f
fffe
0000
000b
0000
fffb
0016
fffe
ffe1
000e
0011
0019
002b
ffe6
ffee
fffd
0002
0027
0001
0025
ffd9
0031
fffb
0006
0011
ffdc
ffbe
0029
0004
ffed
fffd
0016
0025
0000
0000
0000
0000
0000
0000
0000
0000
0000
fff2
fff7
ffec
fffb
fffb
0003
fffa
000a
000b
ffe6
ffed
fff1
ffee
ffe6
0017
ffea
fff0
ffff
ffed
000d
ffee
ffe9
ffed
ffec
000f
ffe9
fff2
0010
0001
0001
fff8
fff5
ffea
000f
000f
ffe9
ffea
ffe9
0008
ffe9
0005
0005
000c
fffd
0004
0008
ffff
ffee
fff6
fff8
ffed
fffb
fff2
fff8
ffe4
ffed
fff7
fff0
0000
ffe9
fff4
ffee
0011
000e
fff8
fffe
ffef
0013
000b
000e
fff5
fff0
fff1
ffe6
fff3
0000
0005
ffff
0003
ffeb
000d
ffeb
fffe
ffeb
fff6
000b
fffa
0002
fff5
fffb
fff9
fff2
fffb
000b
0007
ffef
000c
0004
fffb
0006
0004
fff9
ffe6
0008
ffe8
ffe7
0009
fff7
0001
0006
fff4
000a
fffe
fff2
fff7
0007
0003
fffc
fff1
0000
0000
0000
0000
0000
0000
0000
0000
0012
0000
ffd0
ffd8
ffe5
ffef
fffd
fff1
ffbc
ffe6
0019
001c
0012
0017
0004
0005
000b
fff0
fffb
0010
ffd9
0010
0019
fffb
fffd
0008
fff9
fff9
0010
0028
0002
fff1
001e
001c
000f
0031
fffb
0002
0010
fff6
ffef
fffb
fffc
fff6
000a
ffc7
0014
001c
fff9
0007
fff7
001e
0008
fffc
0023
0017
0023
0000
0018
000c
ffea
ffe1
0023
0040
0030
000b
ffe5
0000
ffff
fff5
ffeb
ffed
0018
ffc8
000e
fffb
fffa
ffe4
ffd9
fffb
0003
fff2
0011
fff6
fffa
ffe7
0010
0017
ffda
0004
0005
0005
ffd4
ffe7
fff0
fff6
ffda
0004
fffe
ffd0
000e
fffb
001a
ffe3
ffed
0018
0013
000e
0005
0004
fff4
ffec
0002
0031
001a
ffe4
000e
ffed
0017
0022
0000
0000
0000
0000
0000
0000
0000
0000
0023
fff2
000f
fffd
001a
fff5
fff7
fff9
0007
000c
ffff
fff9
ffeb
0010
002c
0008
0022
0011
fffe
ffeb
fff9
fff5
000d
fff1
0019
0003
0021
0000
0010
0011
ffdf
0000
0011
0003
ffee
ffe0
fff2
0008
fff1
0017
fff5
0018
ffd8
fff9
001f
fff4
000d
000a
000b
0003
fffa
fff1
fff0
fffd
001e
001a
ffed
0012
fff3
0051
fff2
fff0
fff7
0036
fff5
fffb
0018
ffff
ffea
000d
ffed
ffef
001f
0007
0032
000a
fffc
0008
000d
0002
0038
fff9
0024
fff4
000b
001a
fff7
0013
0011
fffc
0017
fffa
0008
fff2
0027
ffef
fff6
fff1
ffed
0027
0004
0000
ffef
fffb
ffec
ffd5
fff4
002d
ffd2
001b
0012
0026
0000
ffc8
001d
0019
ffea
ffec
0015
0000
0000
0000
0000
0000
0000
0000
0000
0000
0006
ffea
000c
ffed
0003
ffec
ffef
fff9
0005
ffef
000b
000f
0009
fff1
0006
fffd
fff6
ffee
fff0
0003
000b
0009
ffeb
fff0
000f
ffee
fff7
0016
0000
fff0
0004
000f
ffff
0003
ffeb
ffe5
fff2
fff7
fffd
000b
ffe5
fff8
0006
fffb
0009
000e
fff4
fff4
ffee
fff9
0000
fff1
fffa
fff9
fffb
fff3
fff9
ffee
fff0
0006
ffe1
000f
fff3
fff3
0009
ffe7
ffeb
ffec
0006
ffec
0005
0009
ffea
000c
ffe9
000c
000c
0002
ffe3
fffd
0011
ffeb
0006
fff2
fff9
ffee
ffe2
ffea
fff8
0001
000c
0001
fff4
0000
ffef
0000
fff1
0005
fff8
fff7
fff7
000d
ffe6
000b
fff7
fff8
ffe8
000a
ffed
fff5
000e
fffc
fffb
fff5
ffff
fff2
0005
0003
0012
fff1
0000
0000
0000
0000
0000
0000
0000
0000
0005
fff4
001f
0021
fff6
000a
0002
0000
000a
0007
002e
ffff
0005
0014
ffd3
0007
ffdc
ffff
fffe
0033
000c
0016
000a
fff5
0001
ffee
000d
ffeb
0005
ffe7
001d
fff7
000d
fff1
000d
0022
0028
ffed
fff0
0005
ffef
0007
0017
fffe
0025
0003
fff0
ffea
ffe7
0015
0006
ffed
0000
fffe
ffe4
ffd0
0009
ffe8
0012
fff3
001e
000c
fff8
000b
ffe2
0008
ffd8
0010
0001
ffed
001e
0003
000d
0053
ffe1
ffec
fffc
0015
ffff
0005
fffb
fff3
ffdf
0010
ffe8
0017
fff0
fff9
000e
fff1
fff1
fff1
0016
001e
0009
000b
0028
0001
0001
0035
0012
fff3
fff1
0005
0029
000b
001f
000c
ffd7
ffff
fff8
002e
0010
ffd1
fffe
001f
000a
0001
fffe
0007
0000
0000
0000
0000
0000
0000
0000
0000
ffff
fff6
ffe1
0002
fff5
0000
0005
000c
000c
0001
ffb9
ffea
000f
0010
0055
fff6
0010
fffd
fff4
ffeb
0006
ffdb
ffee
ffeb
0001
fffc
ffca
ffea
ffea
0026
0004
0005
ffd3
001a
0014
ffff
ffe9
000e
000d
fff4
0000
fff2
0018
fffc
ffdc
0006
ffe2
fffe
0003
fff8
fff8
0023
0001
ffed
0038
000e
003b
fffa
fffb
0020
ffe2
001a
001f
002a
ffe2
000b
0034
ffea
fff7
002d
0018
0004
fff7
ffa9
0001
0005
0004
fffb
000a
0019
000d
000a
0026
000b
0031
ffe2
000d
000f
000a
fffc
001c
ffee
ffff
ffe1
0007
0012
ffbc
ffec
ffeb
ffa4
ffcd
0014
002a
000d
ffce
ffcc
ffd4
0031
004b
001b
fff3
ffab
0006
002b
000b
ffcc
fffa
0014
0001
ffdb
0000
0000
0000
0000
0000
0000
0000
0000
ffef
ffee
ffe4
001b
002b
0000
0000
0000
fffb
ffd8
0010
fffb
0025
0006
000e
ffff
ffed
0012
0003
ffef
fffe
ffec
fff6
0011
fffe
0004
ffeb
0018
0001
0006
0013
0007
001e
002a
fff6
fff3
ffd2
000d
0024
fff2
ffc5
000c
0027
000c
ffc9
ffe4
fff7
0010
fffa
0012
000a
fffd
0013
ffec
004d
0029
001b
ffe9
0016
001a
ffe2
fff8
0012
ffe2
001e
ffd5
0022
000d
0008
fff6
000f
ffe3
000c
fff7
0021
fff6
fff8
0002
ffe2
001b
0000
0004
ffef
000d
000f
fff2
0022
ffe0
0002
ffed
001f
fffa
000e
001b
000b
0014
001a
fff1
000f
ffdc
fff0
fff7
0008
ffd4
0014
000e
000e
000d
fff3
001f
0000
0012
0000
0016
0000
ffea
fff1
0015
0012
0005
0000
0000
0000
0000
0000
0000
0000
0000
0003
fff9
000b
fff0
ffe9
fff0
0004
ffe2
fffd
0010
fffd
ffeb
fffc
000c
ffe7
fff1
0003
0015
fffe
ffe7
fffd
0008
ffff
ffed
fff0
fff9
fffc
fff1
0006
0002
0003
0013
fff1
ffec
0013
0004
ffe5
0002
ffef
0017
fff5
fff0
fffa
0018
0006
ffef
000f
0000
ffff
fffc
ffef
ffe9
0011
ffeb
ffff
fff0
fff0
ffeb
0007
fffb
fff1
fff2
0007
0004
ffe5
fff1
ffe9
0003
fff9
fffc
ffec
000d
0005
fffc
0004
ffef
0014
0008
0001
000a
fffc
000e
ffee
000e
0009
fffe
fffa
0004
ffea
0004
ffe7
0012
0011
fff8
ffee
fffa
ffff
000d
0014
fff9
ffe6
0017
fff2
fff7
ffe9
0000
000c
ffee
0008
fff1
0011
0006
0008
ffe2
ffe3
fff2
fff2
fff0
ffff
fffd
0000
0000
0000
0000
0000
0000
0000
0000
000c
0009
000f
fff0
fff6
ffe8
fff9
0006
000b
0022
ffc7
ffe6
002b
0002
ffd9
0017
fff6
0019
fff6
0026
0003
000c
ffbe
ffeb
0026
fff7
0017
000c
ffea
ffee
0027
fff1
0000
002f
ffe4
ffe5
0016
0006
000f
0012
0006
000a
0006
0000
ffe1
001c
0009
fff4
000c
fffa
0016
0000
000c
0003
0015
0029
ffff
fffe
ffe2
fffd
0026
0000
ffbf
0019
0009
ffed
0027
fff0
0016
0004
0022
ffde
fff7
0004
fffd
fffc
000e
0001
ffe8
fff6
ffdb
0019
ffd0
fff3
fff4
0013
ffdb
ffd1
0015
0016
ffd8
ffed
0020
001d
0009
002b
0014
0008
0015
ffd7
001c
000f
fff3
0002
0001
0003
0028
ffee
003a
0012
ffff
0006
0034
004a
ffdc
002b
0004
ffe1
0004
0019
0000
0000
0000
0000
0000
0000
0000
0000
ffef
0012
000d
ffee
ffec
ffef
ffee
0000
fffb
fff1
ffec
0007
ffed
ffef
0005
000d
0000
000c
0006
000f
0000
fff0
0000
ffff
0006
0005
0010
0015
0014
ffe8
fffb
0014
0005
000b
000c
fffb
ffe5
ffea
fffd
0017
fff2
0000
0000
0003
000f
000c
0002
ffeb
000d
0000
ffef
ffea
0006
0006
0009
ffeb
0003
0004
fff2
0008
fff6
fffd
fffb
ffeb
ffec
ffee
fff8
0006
fff8
0011
0000
0001
ffe7
fff0
0008
fff4
000a
0000
fff4
ffe8
ffef
fffc
0002
0000
ffd8
fff4
fffe
fff8
fffd
0009
fffd
ffe9
fff6
0003
ffeb
0003
0003
000f
0007
0003
ffe7
ffef
fff0
0012
fff1
0006
ffef
0006
000e
0005
fff3
fff8
0000
fff2
fff8
fff6
fff8
0010
0000
fffa
0000
0000
0000
0000
0000
0000
0000
0000
ffd0
0011
ffec
fffc
0028
fffe
fff1
fff1
ffef
ffe9
0016
0000
ffe7
0001
001d
0014
0005
0006
0011
ffe6
000b
001d
0011
000a
ffd9
ffe9
ffe0
0003
001a
0007
0027
0014
0005
0014
fff6
002a
ffee
fffc
fffd
000a
0000
ffee
0004
ffef
ffd9
ffdd
ffe9
ffec
ffef
000a
000c
fff9
fffc
ffef
0029
0010
ffed
0016
0024
0005
000f
000d
0041
0005
0002
fff4
001c
ffec
0005
001a
0008
fff9
0006
fffe
002b
fff7
0004
ffea
ffd4
fffe
0022
0001
000d
0004
fff3
fffa
002f
0009
fff1
0013
0026
fff8
0003
0014
fff4
0030
0016
fffb
0007
ffed
000f
0005
0010
ffc8
0026
0028
0013
000c
0052
001c
fffe
ffdf
0005
0071
ffff
fffe
fff9
001e
0011
fffe
0000
0000
0000
0000
0000
0000
0000
0000
0008
fffe
000e
0004
0038
001c
0011
000a
ffe3
fff8
ffe9
ffe9
fff4
000c
001f
fff3
0015
0001
ffec
000b
ffff
0017
0000
ffed
000a
fff9
001e
0010
ffdb
0016
fff1
000f
fffc
001c
0007
fff2
ffd5
0015
0019
0010
ffeb
000f
ffe4
fff3
ffee
ffed
0020
fffb
000e
0002
001d
ffff
000a
000c
0025
0026
fff2
ffea
fff6
ffe0
fff5
ffe5
0006
fff5
001a
ffee
0008
0009
fff2
0000
fff6
001c
0000
ffdf
0027
ffeb
fffa
ffdf
fffa
fff4
fff3
ffec
0010
001a
fff8
fff5
ffe7
ffe9
000a
fff4
0020
0014
fffb
002b
0009
0016
fff2
fff8
000c
ffef
ffe6
fff0
0024
0015
0015
0009
ffff
fff1
ffc9
0008
fff9
0008
fff8
ffc7
0020
fff2
0017
001e
0012
ffd0
0000
0000
0000
0000
0000
0000
0000
0000
0013
0013
0000
fffd
ffe9
000c
0010
000e
0019
0016
fffc
001a
fffa
0001
0019
fff8
ffe8
0000
fffe
000f
0008
fffe
003b
ffff
fff8
0004
0000
0009
0027
ffcf
ffed
fffa
0037
ffd5
0000
0021
0008
ffd7
0018
fffb
ffd8
0015
0000
fffe
001d
0014
ffff
0002
fffc
ffeb
fff3
0000
0012
001c
fffa
ffb7
001d
0013
000a
0044
000c
0003
0042
0017
ffee
0015
0006
000a
0006
fffc
ffee
fff5
000e
0014
0006
000e
fff9
fff8
0000
0002
001b
000f
0017
0003
fff5
fff4
002a
0016
ffea
0000
ffe4
0009
0005
fff8
fffe
ffe5
0006
0001
001a
0010
000d
0014
ffed
ffef
fff3
000a
000e
000a
0017
fff8
ffe7
ffeb
001a
0007
0001
001f
fffc
0004
000b
0009
0000
0000
0000
0000
0000
0000
0000
0000
fff3
0008
0008
ffe7
ffff
fffc
0015
fff3
ffee
0003
fff0
fffd
fff4
ffec
0006
ffea
0004
fff3
000c
fffc
0000
ffe8
000b
ffee
fffd
0016
fff8
000f
0016
0000
ffed
fffd
ffee
ffff
0015
0007
fff7
ffef
0000
fff8
0000
0004
fffd
0013
fffc
0009
fffb
000c
fffb
fff4
fffd
ffeb
000e
ffec
0012
ffec
fff8
fff4
fff3
000a
ffe8
ffe6
0016
0005
fff1
ffea
fff6
ffec
fff2
fff1
0000
0001
0003
0002
ffff
0000
0009
0002
ffec
ffea
fff0
fff3
ffe9
000e
ffec
fff0
000c
fffe
ffdf
0007
ffee
ffeb
ffee
ffed
ffe2
fff8
0002
000c
fff3
fff7
000b
0006
0015
ffea
ffff
fffb
ffe1
0003
0011
ffe8
0003
ffe0
0004
fff1
0006
ffe1
0001
ffee
ffec
fffa
0000
0000
0000
0000
0000
0000
0000
0000
0007
fffb
0012
002e
0016
0013
fff8
0007
0031
001b
0002
0007
fff9
fff8
0019
0010
0002
000d
fff1
000c
fffa
fff8
000f
fffc
0001
ffed
ffec
fffe
0029
ffdb
0000
0016
0027
0000
000e
fff1
000d
0000
0019
0013
ffe5
fff6
0034
ffde
ffed
ffe6
fffb
0006
ffee
0000
fffe
fffc
000b
001e
000d
fff0
ffff
0011
ffd9
000d
fff9
002c
ffee
ffce
0037
fff9
0009
fff6
fffa
fff5
ffea
0024
0008
0026
0015
fff6
0009
0002
0016
ffd8
ffe7
0002
ffe3
0011
001e
0020
0006
0003
fff2
ffe7
ffcb
0009
0001
0024
ffe8
ffe2
ffdf
ffed
0012
0026
fff3
0005
fffe
0014
ffe4
0005
ffe2
fffd
ff7f
fff7
0004
002a
0000
ffee
0008
fffd
0004
0014
0005
ffc3
0000
0000
0000
0000
0000
0000
0000
0000
0000
ffea
fff2
0007
0006
ffec
0013
ffe6
0020
0009
ffe4
ffea
ffeb
fffe
fffc
fff2
fff3
0002
fff9
ffea
0013
ffe3
fffa
fff8
000a
000f
fff8
ffe9
ffd9
0003
ffe9
fff7
ffe8
0009
0006
0000
ffea
fff1
ffee
ffef
ffe7
ffea
0012
0012
ffe6
ffda
fff2
0002
0005
0007
000f
ffdf
000d
0013
ffdd
fff6
ffe9
000b
ffe7
fff2
0004
fff5
fff4
fff1
fffe
ffe1
ffd8
0009
0006
fff5
ffdb
000a
fffd
ffe9
000a
fffd
fff2
ffcf
ffd9
fff2
000c
0006
ffdd
fff6
ffea
0014
fffa
ffe2
000f
fffb
ffe3
ffee
0013
fffc
fff6
ffdb
fff6
ffff
0005
fffa
fff4
fffc
000e
ffe9
ffd6
ffe1
fff8
0009
fff2
ffe6
fffc
fff4
0012
ffd8
ffe0
ffe2
ffed
0006
0010
ffe1
0000
0000
0000
0000
0000
0000
0000
0000
fff0
0002
000f
ffe4
ffe0
0006
ffec
0000
ffe2
0001
0035
001e
ffef
fff5
ffdf
ffeb
002a
fff2
fff0
0000
fffd
000d
0032
fff3
000c
0018
0003
0009
001e
002b
0019
ffe9
fff1
001f
0010
0027
0000
ffff
0000
fffd
0012
fffe
fff5
000d
0030
fff4
fffe
fff9
ffea
fffa
001c
001c
0008
ffff
000d
fffa
0009
000b
000d
ffe6
0016
fff9
fff9
000c
000e
fff9
fff2
000b
0011
fff4
0014
ffe6
0014
ffe2
ffff
ffed
ffeb
fff4
ffdf
000d
ffec
0000
0018
0007
ffed
ffe2
fffa
002c
fffa
fffc
ffe9
fffc
0007
ffe5
001e
0015
0001
000e
fff7
ffdd
002c
ffe7
fff3
fffa
0015
0020
0005
fffe
003e
0000
0015
fff3
0000
ffe5
0003
000b
ffe8
fff2
000b
0030
0000
0000
0000
0000
0000
0000
0000
0000
fff9
fff2
ffe8
fff4
0019
fff8
fffa
000d
fff2
fff9
fff2
000b
fff5
0015
fff2
ffff
0006
fffa
0013
001a
fffb
000e
ffd6
ffed
0026
0000
000b
0001
ffe4
fff6
001e
000e
ffe0
0010
0000
ffce
000a
0002
fff4
fffb
ffef
0013
000d
ffef
ffd2
0016
fff5
000b
0000
ffed
0002
ffeb
ffed
ffe7
002c
0020
ffda
ffe8
0011
fff4
000c
fff9
ffe2
0004
0019
ffea
001f
000d
fffe
0000
0000
ffdd
0014
ffec
0003
fff3
0013
001b
ffe0
0020
0000
000f
ffd1
0013
0022
000d
ffcf
ffea
001f
0010
fff1
0000
0016
001b
0010
fff8
0010
0009
0011
fff7
0006
000d
0016
0009
0008
fffb
0004
fff6
ffd2
0009
0000
001e
ffda
000c
0001
000b
0007
0009
ffe8
fff7
0000
0000
0000
0000
0000
0000
0000
0000
0016
000f
0005
ffea
ffd5
ffed
0012
fffe
fff4
0001
fffb
0013
0029
fffa
ffdf
000d
000e
0004
0005
fffa
fffa
000c
fff4
fffd
0013
ffed
000e
ffe7
fffe
0024
0012
0002
001a
001e
0001
0006
0023
ffe7
000c
ffe9
0030
ffea
ffeb
000a
0015
0003
fffa
fffb
0013
0012
fff6
000e
0012
0017
ffde
0012
0000
fff8
001c
ffd0
0007
ffda
fff9
0032
fffe
001b
ffe4
0000
ffff
fffe
002d
001a
fffb
ffd0
ffd8
000b
ffed
ffea
0021
fff7
0000
fff9
0018
0001
ffdc
ffe8
ffea
0023
ffd9
fff8
001e
fff9
0005
ffed
0011
001e
ffd7
000a
ffed
ffef
001e
0010
0006
fffa
002a
001b
0007
fff3
0074
fffc
ffff
ffe4
001a
fff2
0007
ffea
0010
000b
fff6
fffb
0000
0000
0000
0000
0000
0000
0000
0000
fff9
000c
001a
0020
fff1
0013
fffe
0020
ffe4
fffc
0035
0005
ffe6
ffff
0000
000e
0000
000a
fffa
fff4
ffff
fff3
0024
fffb
fff9
ffe9
002d
fff9
0002
ffed
0019
ffec
0000
ffed
0000
0015
0005
0005
ffea
0002
ffeb
ffe7
fff3
0020
0025
fff8
000a
000b
0004
0000
ffe9
000c
0005
fff5
fff5
ffc8
001c
fff8
0029
0020
000c
fff6
0013
fff0
ffe0
0014
ffeb
000a
ffe7
0018
fff5
0000
000e
0029
0003
0011
0005
0024
0011
0014
0043
fffc
001b
fff2
ffd9
0006
001a
002c
fff1
0000
000a
0004
fffe
ffeb
001f
fff5
0005
0002
fff5
003b
000f
ffef
ffff
ffee
0006
0019
fff8
000e
002a
fff6
0011
000d
fff3
ffb2
002d
fffc
0007
0015
fff9
0038
0000
0000
0000
0000
0000
0000
0000
0000
ffea
fff9
fff9
0022
ffd8
fffe
fff8
0011
0005
0002
0013
0011
0012
fffb
fff8
ffea
ffe2
fff3
fffd
fffd
0002
0007
001b
000c
fff3
0005
ffde
fff9
fffc
0019
000c
0022
0002
fffa
fff1
002b
fff1
0006
000b
fffa
fff2
0009
fff3
ffff
000f
fff3
ffef
0000
fff9
0019
001c
0001
0005
0012
000d
ffc4
0012
0000
0012
ffeb
fff8
ffe3
0030
ffbc
0019
0010
0001
0004
fff6
0014
fffb
000f
ffeb
000c
ffde
fff8
ffee
ffe6
fff1
0004
0011
fff9
002b
ffec
fff0
ffed
0024
fff5
ffed
000f
0029
0009
000f
fff0
ffed
0010
0006
ffff
fffa
0005
fff5
0007
0002
0010
0024
0029
000e
ffe1
0045
0001
ffed
ffef
0005
fff7
000a
ffd7
000f
0021
ffff
0028
0000
0000
0000
0000
0000
0000
0000
0000
ffee
0010
0000
002e
0018
fff2
0002
0009
0012
0012
0009
000e
fff6
fffa
ffe9
ffff
fff3
0012
ffff
fffc
000b
0021
0009
0000
0011
fffc
0010
ffed
0027
001a
002d
fffc
000e
002e
000f
fff5
fffb
fffb
fffe
001a
ffd3
fff6
0004
0010
0019
0030
fff8
ffec
000f
000f
ffe8
0003
fff2
0020
0016
001d
ffea
0013
ffea
ffd9
003f
0017
ffcb
ffa7
003a
0005
0000
fff0
fff4
ffe0
ffe8
fff6
000c
0011
ffe9
ffe7
000c
0017
fffc
001f
ffe7
0011
ffdf
000a
0012
001f
ffe2
ffcf
0003
0007
ffc9
000a
000e
002d
0000
fff8
0016
000f
0006
ffeb
0015
000e
ffe9
ffe3
0011
001d
fffd
0005
ffcc
0003
ffed
0021
ffc6
ffa2
0021
0032
000e
fffa
fffc
001f
0000
0000
0000
0000
0000
0000
0000
0000
ffde
ffe8
ffe1
ffeb
fff2
fff6
fff1
ffeb
fff2
ffcd
001f
ffcf
ffd1
fff1
ffff
0014
fff8
0011
0009
0016
fffb
0009
0017
fff0
000e
fff4
0036
000c
ffe9
0026
001e
fffd
ffe0
0005
0009
fff7
0017
0029
0000
fff2
ffed
0012
ffea
000d
0006
000a
0011
000d
0009
0013
fffd
ffd1
ffe8
0001
ffe6
0018
ffcc
fffa
0025
ffd7
002e
ffe5
fffd
001d
ffd9
fff8
ffef
fff6
ffed
0018
0020
000e
fffb
001c
0006
fff3
000c
001a
fff1
0024
ffef
fffc
fffb
fffb
0000
ffff
ffda
0001
ffea
000f
fff6
0010
fff7
0011
fff7
0002
0024
ffe9
ffea
000a
000e
000e
0013
000f
002d
ffe9
0004
0004
0005
000d
0012
001c
0007
001e
002c
0006
0006
ffed
0000
002f
0000
0000
0000
0000
0000
0000
0000
0000
0006
fff1
fff6
fffe
0005
ffea
fffb
ffee
000a
ffec
0009
ffee
ffef
0006
ffea
fff7
0002
ffed
0003
0004
fffb
fff7
fff1
000c
fffa
ffec
fff7
0016
000f
ffeb
ffe5
fff7
fff9
ffe8
0007
ffe5
0003
fffb
000b
fff0
000c
0001
fffa
0006
fff6
ffee
000a
ffea
fff1
0010
0008
0001
fff1
0017
0005
ffe3
000a
fff9
0004
ffe8
0008
000f
ffdb
fff3
fffe
ffff
ffee
0007
0012
ffff
fff7
fff6
ffe5
fff2
0002
fff0
fffb
ffff
ffec
fff4
ffed
fffd
ffff
ffef
fff2
fff2
0007
fff0
fffd
000a
fffd
0010
fff8
fffc
ffef
fff7
0010
ffea
fffa
0007
ffef
0012
fff5
0004
0008
fff9
ffe6
fff7
ffe6
0005
0011
0004
ffea
ffff
fff0
000f
0012
000e
000d
fffe
0000
0000
0000
0000
0000
0000
0000
0000
0019
fffb
002e
0013
0022
fff3
0005
001c
0008
0029
ffec
fff7
fff0
fffa
0010
fff0
0011
000a
0000
fffb
0001
ffeb
ffed
fff7
0015
0004
0020
0012
000f
fff9
fffc
fffb
ffca
fff9
0008
ffd5
000f
0000
001e
0011
fff8
ffef
0012
0012
ffec
0032
0006
fff2
000f
000e
ffee
fff5
fff4
ffe2
0002
ffea
000d
ffef
0003
0024
002c
0012
ffe5
fff1
ffe0
fff8
000c
0008
000a
fff2
0017
001a
fff5
002f
000b
fff1
fff9
001a
001a
fffd
fff6
fff2
0018
000c
0010
002a
0006
fffb
001d
ffeb
0002
0007
000b
000d
0011
fff3
ffea
0013
0007
001f
fff7
0007
ffff
001a
fffd
ffd8
0020
ffda
ffe3
0012
fff9
0009
ffef
001f
000f
0008
000a
0006
0002
0008
0000
0000
0000
0000
0000
0000
0000
0000
001c
0015
ffe8
ffda
fff4
0016
fff9
fff6
ffbb
ffdb
fffd
ffd3
ffc8
fffe
fffd
fff6
0061
fff5
fff4
ffd9
0000
0018
0010
0011
fff0
0013
0015
ffef
0001
001b
0011
0006
fff3
ffea
0003
0001
0009
002f
fff0
0005
0020
fff8
ffea
0013
001e
ffcf
fffc
0001
0002
ffed
000c
000c
fff6
fffc
0013
0008
ffd8
000f
0047
0026
001b
002e
0019
0052
ffd2
0006
fffd
0012
0002
0005
fffb
ffff
000c
fffe
003a
0010
0002
fff4
ffe8
0001
0020
fffc
0020
000f
ffc5
ffe9
fffa
0036
000e
fff7
0013
fffd
ffcc
ffef
0012
fffa
0023
0004
fffd
0019
001c
fff5
0015
ffdb
ffe8
fff2
0012
000a
fff6
000c
fffa
ffda
002e
004b
001b
0018
000f
ffe8
0001
0014
0000
0000
0000
0000
0000
0000
0000
0000
ffdb
0001
ffe7
fff0
fff3
0015
fff5
ffe8
ffe9
ffee
0010
ffdf
ffe1
ffee
ffec
0002
fff5
0009
0009
ffc6
001d
ffc6
fffc
ffee
ffee
fff3
ffe4
ffea
0010
0001
fff2
0000
0016
ffea
ffef
ffe0
ffe5
ffdd
ffc5
000f
fff9
0014
ffee
fffb
001c
0000
fff9
000b
0012
fffe
fffe
ffd5
0009
0007
fff6
0013
fff9
fffe
ffe5
ffc7
ffd7
fff3
000f
fff5
ffdc
fffa
000d
0015
fff0
ffd8
000f
000c
ffe6
ffe6
ffd2
0007
000d
ffd9
fff5
ffea
ffde
fff4
fffb
ffff
ffde
ffd2
ffd7
fff1
0005
0000
0015
0011
ffe4
ffe9
ffe7
0000
ffe0
fff9
0015
ffd4
ffc6
0001
fff6
ffda
ffd9
0000
ffc6
0012
0015
0006
fff2
ffea
000b
001c
ffff
ffca
ffee
ffe9
fffa
ffe4
0000
0000
0000
0000
0000
0000
0000
0000
ffd8
000c
fff2
ffb5
ffe9
0013
fff4
0000
ffe8
fff2
001a
ffe9
fff9
0001
fff2
000c
001f
fff3
000f
000a
0014
ffd3
0008
000d
fffa
0011
ffc5
fff6
0030
fffa
001c
0003
ffe2
0033
0003
0046
ffa3
000a
ffa4
ffed
fff4
0003
ffd2
0014
ffd3
ffe0
fff4
0008
ffee
0014
0013
ffe2
0010
fff3
000e
000c
fff1
fff5
ffee
ffb4
fffc
0028
001b
fff0
003d
ffb1
fff3
000b
0017
0020
fffc
ffeb
0015
ffd1
0022
0007
0012
ffb6
ffb8
ffd9
ffd6
0012
ffde
000b
fffe
fffa
ffe8
0000
0021
fff5
0006
fff4
ffd7
0008
0006
fff4
0024
000f
ffff
fff8
002c
ffea
0009
ffd5
0000
0000
ffe7
0008
fff2
ffdd
fff9
001c
fff2
ffd1
0002
0002
fff1
ffd7
0000
ffe8
0000
0000
0000
0000
0000
0000
0000
0000
0002
ffeb
0006
0012
0019
0010
000e
0023
0030
001e
fff9
fff9
001c
ffe9
000d
0013
ffcd
0011
ffff
0011
fff9
ffef
fffb
ffed
000a
fff5
000d
0009
fff7
ffec
ffea
fffe
0007
000a
000f
ffe0
0008
0003
001a
fffd
ffd4
fffa
0007
0005
ffe7
0008
000e
ffe8
0000
fff4
ffe5
000e
0018
0018
fff3
fffe
fffc
000b
ffe8
fff7
ffd3
0009
ffe4
ffab
0007
ffe3
ffea
fff2
0001
000a
ffde
000e
0005
0012
0006
fffb
fff0
0013
0003
fff3
0000
fff1
fff1
0019
0033
ffff
ffe3
ffd0
0015
ffeb
ffe7
000e
0023
001d
fffc
fff7
fff1
fff4
000d
0032
fffd
0006
fffd
0007
001a
000d
0012
0001
ffd2
001e
fff0
001b
000c
ffa4
0023
fffe
fff0
0021
000b
ffed
0000
0000
0000
0000
0000
0000
0000
0000
0005
0014
ffed
0026
fffe
ffeb
000a
000d
0009
0012
0003
000b
000d
fff9
ffd8
000d
0017
0014
000d
fffd
0022
0018
0013
fffa
0014
0015
ffd9
0007
0033
0021
001e
0020
0003
001c
0009
000a
ffe8
ffec
ffe7
0005
0023
000d
001a
fffd
0018
0016
fff0
fffd
fff8
000d
0009
fffa
0013
0009
ffd9
0017
fffc
0013
ffe7
ffdc
001d
0037
ffed
ffdc
001f
001c
0019
000a
fff4
ffcd
0005
0015
0004
0000
0001
0001
fff0
000e
000a
0007
0001
000d
fffe
fff2
0018
0026
001a
ffdf
0022
ffe2
ffca
ffef
0016
fff0
ffe6
fff1
0003
0000
0000
0008
0016
0003
fffd
fff8
ffe8
0015
0014
fff1
ff95
ffe5
fffe
000b
001c
0050
ffe0
002a
fffc
0016
fff2
fff2
0000
0000
0000
0000
0000
0000
0000
0000
001b
0006
0007
ffe7
ffe3
fffb
000f
ffe7
0001
fffd
001c
0007
ffe9
000b
ffe6
000d
0003
ffef
fff7
0013
ffff
0021
0020
0000
001e
ffed
001f
ffeb
0003
fff7
0002
ffec
0022
ffdd
0011
0030
0030
ffef
fff6
fff8
000c
000c
ffe0
0019
002c
fffc
0004
fff9
ffea
fff1
fff0
fff2
000a
fff5
ffc4
ffdb
0007
0001
fffd
0003
0007
fffb
fffb
002f
fff1
0006
ffca
0000
0002
0007
ffea
0006
ffed
0038
0000
fff7
0012
000e
0014
ffec
0009
fff0
fffd
0010
ffca
000b
001f
001b
fff2
0005
0000
fff4
000f
ffe0
fff8
fff1
0012
fff7
fff4
0006
0013
000f
fffe
0002
ffe3
fffa
0000
fff4
000a
fff2
ffee
001f
0011
ffbe
0000
0010
000c
fff4
0014
0023
0000
0000
0000
0000
0000
0000
0000
0000
0000
ffef
0001
0002
ffe6
000e
fff0
0002
fff5
ffe1
ffee
fff3
0008
ffef
000d
fffd
000b
0010
fff4
fff0
000e
fffd
0000
0010
ffde
000e
fff7
0010
fff0
fffb
ffe8
0006
ffe4
0006
0003
0000
ffe2
fff4
ffdc
fffd
ffe8
0011
ffec
000c
fff3
ffec
fff2
0016
0012
0010
000f
0006
0011
fffc
ffee
000e
fff1
000a
000d
0003
fffe
000f
0000
fff1
fff4
ffdd
ffec
0007
fffd
0009
0008
ffe8
ffe4
000c
fff2
0001
fff3
0008
0000
000b
fffe
0002
fff3
0012
fff1
000d
fff4
0005
fff9
fff0
fff9
ffeb
fffd
0000
fffb
000c
0000
000e
0012
fffa
fff5
000d
ffe5
ffe2
ffec
fff0
ffe8
ffec
0000
ffeb
0011
ffef
ffea
000c
ffe4
000f
ffe9
ffeb
0015
ffe7
0000
0000
0000
0000
0000
0000
0000
0000
ffe9
fff3
ffd6
fff2
ffe5
ffeb
0015
ffe2
fff3
ffe0
ffdc
000c
000e
0014
0048
001a
0041
0000
fff7
ffdb
ffef
ffe9
ffdb
fffb
fffd
0000
ffed
ffef
ffdf
ffd5
ffeb
fff4
fff0
ffd7
fff1
ffe6
fffe
002b
0017
ffee
ffe6
fff6
000e
ffe4
ffe9
0003
0000
001c
ffeb
fff1
0006
fff0
0004
fffb
002f
fffa
002b
0015
0011
0045
0005
0014
0019
0011
0014
001d
0033
000d
fff5
001c
ffea
ffff
001e
ffe5
0017
fffe
fff6
fff2
fff8
fff8
0031
ffe8
0020
0013
0006
ffeb
002a
0003
000c
0000
ffe6
fff7
fffb
0008
000e
fffc
0005
0004
000f
ffe7
fffa
0005
0014
fff7
ffe0
ffba
0011
0003
0025
0004
fffd
ffc8
fffb
0056
fffe
0006
000a
0004
ffe9
0004
0000
0000
0000
0000
0000
0000
0000
0000
ffd8
fff9
fff9
001d
000e
ffee
0013
000f
0001
000f
000b
0014
ffed
fff1
0021
0010
0023
0003
fff7
0006
0016
ffe7
000b
0011
fffd
0015
fff5
fff0
0035
0007
000c
0008
ffe8
0004
ffe9
0024
ffe7
0011
0004
000d
ffec
fff6
000a
0018
0008
ffeb
ffeb
fffb
000f
ffea
fff3
0005
0002
001e
0013
ffdf
0016
fff4
ffe2
000f
0000
0019
000c
ffb9
0045
0002
000b
0013
ffed
fffb
ffec
0020
0013
fff6
fff1
fffb
0000
fff0
0005
000c
0018
fffd
ffe2
fffb
fff8
0010
001b
0011
ffef
fff0
ffe6
fff0
0006
0011
0007
ffe5
001c
fff8
0009
fff0
ffe9
fff6
fff2
ffea
0004
0011
ffe0
fff4
ffd9
fff6
000e
ffe7
0006
0013
000c
0004
000e
0019
fff6
ffdd
0000
0000
0000
0000
0000
0000
0000
0000
fff3
fff8
ffeb
ffed
fff5
fff5
000f
fff3
000b
000b
0001
fff6
fff5
0010
0006
0005
0006
0009
000e
fffd
000e
0003
ffff
fff1
ffe9
fffe
000e
000c
fff7
fff4
fff5
0007
fff8
0011
fffa
ffe9
000f
ffe9
0001
ffef
ffea
ffed
0003
fff9
fff4
000b
0001
fff0
0015
000c
0002
0011
fffc
0002
ffe7
0011
ffec
0000
fffb
ffef
ffe6
fffd
ffe9
fff3
fff9
0007
0004
000d
0011
ffeb
000d
0012
fff5
0012
ffea
0006
ffeb
000f
0006
ffee
fff7
0009
ffeb
000c
fff3
fff2
ffeb
ffe6
fffd
fffe
fff1
0010
000b
0000
0013
ffea
fff7
fff3
0013
ffed
fffb
0011
ffff
ffea
ffff
ffe7
0004
000c
ffef
fff3
0003
ffe8
fff1
0011
fff1
0000
0008
0001
fffd
0012
0000
0000
0000
0000
0000
0000
0000
0000
ffde
fffe
fffe
fff4
ffe9
000f
0004
0018
ffff
ffed
fff2
0016
002e
fff6
ffd6
000b
0000
fff9
fffd
001a
fffc
0000
fffb
0000
0009
0010
ffe2
fff1
fff7
0030
002c
001a
000f
003f
fff7
ffff
ffdc
fff4
0021
fff0
001d
fff3
001e
0009
0002
0029
0008
000e
0000
fff4
fff8
0018
0015
0002
ffe2
0033
fff4
fffa
0017
ffa5
001a
fff8
fff6
0020
002c
0003
0025
000e
fff3
0014
003a
ffee
fffe
ffd7
ffe6
0011
fffe
fff3
fff2
fffc
ffd2
fffc
000d
0015
fff7
ffdf
ffe4
ffe7
ffeb
fff0
fff9
fff0
0011
0016
0014
0009
ffe7
0002
fff9
ffcd
001d
fff5
000f
ffd7
000e
0019
0004
000a
001d
fff8
fff4
0015
ffe7
0025
fff7
fff6
0002
0006
0000
0012
0000
0000
0000
0000
0000
0000
0000
0000
0022
fff9
0022
0000
ffe2
0008
fff3
ffef
002e
0029
fffa
000d
0018
ffee
fff4
fffa
0001
ffe8
0012
000c
fffd
0019
0002
0012
0016
0017
ffeb
0009
0004
ffdd
0009
ffef
0033
ffe6
fff8
001c
0013
ffdc
001d
ffea
fffe
0005
001f
fffc
0012
0000
fffc
fffb
0008
fffd
fff8
001b
fff4
000d
ffdd
ffd9
000f
fff5
0007
0050
0000
0005
0013
000b
0008
000d
fff2
fff2
0007
fffa
fff8
000d
001a
002d
ffe3
000b
000a
001b
001c
fffa
0018
0011
0013
fff6
0001
0009
0022
0003
fff1
0005
ffdc
0017
fff2
0000
fff0
fffa
ffed
0004
0003
0009
fff5
0003
0006
0013
fff7
fffe
0009
0005
0034
ffe1
ffe7
ffe8
0034
0018
0006
ffee
fff0
001c
ffeb
0005
0000
0000
0000
0000
0000
0000
0000
0000
001e
000d
0020
0007
0031
0011
fff0
0000
0023
000f
ffca
ffd2
0010
ffed
000c
ffec
ffb5
0009
0007
0021
fffb
fff3
ffd1
000b
ffd5
0015
0005
0007
ffe1
ffd5
ffff
0000
ffe2
0014
0018
ffdf
001b
0003
0038
0016
ffca
0005
0023
0002
ffb5
0010
0021
fffa
fff1
0000
000e
0001
ffeb
0009
0007
0007
ffe1
fffc
fff6
0029
ffdc
0010
0002
ffb7
fff1
0008
fff8
0014
0010
0027
0009
0006
ffee
0014
001b
0005
fff0
0025
fffc
0010
0001
0009
0018
0005
0036
fff4
fffc
ffee
000a
ffeb
0025
0001
0006
ffee
0010
0004
fffb
fffb
0000
002d
fff2
0010
0020
0031
0023
ffe1
0015
0007
0036
0014
0000
0000
fff9
ffd9
002a
ffdc
0016
fffc
000b
ffda
0000
0000
0000
0000
0000
0000
0000
0000
fff4
fff4
ffe3
0003
0000
ffea
0006
ffdb
fffb
0000
fff2
fff3
fff2
000f
fffa
000f
fffc
0011
fff8
0000
000e
0005
fff1
000e
fff5
ffe8
fff0
fffb
ffeb
fff0
0001
0000
fff0
0006
000e
0012
ffeb
fffa
fff4
fffc
ffec
0001
ffee
000d
0007
0008
fffc
0001
fffd
fffa
fffb
000f
000c
fff3
ffec
ffee
fff3
0006
000d
ffea
0013
fff9
ffef
000c
ffe8
fff4
fffa
ffec
000e
fff2
fff6
ffeb
ffe8
fff3
ffec
000c
0016
ffe7
ffec
fff3
fff6
fff1
fffc
0004
0000
ffeb
ffed
fff8
ffe9
0013
fff3
fff8
0007
fff3
ffee
fff3
0006
fffb
0014
0005
000b
0010
0000
fff7
0004
ffed
0001
000a
fff4
ffe1
0007
fff2
ffee
000f
0000
fff5
000f
fff0
ffec
ffe9
0000
0000
0000
0000
0000
0000
0000
0000
0027
ffe6
0009
000e
fff2
fff0
fffe
fffa
0015
ffff
fffd
000a
001f
fffd
0015
000f
ffe4
fffc
ffe7
fff4
0000
0003
fff4
0005
002d
000c
000f
fff1
fffe
fff8
ffe6
fff3
002e
ffde
fff6
0024
0028
0000
0026
0010
0016
0009
0000
fff6
0024
000c
fffc
0000
0015
0013
000b
000f
fff3
0014
fff9
fffa
002b
0008
ffc9
fffb
ffdf
002f
ffe7
ffeb
000b
0018
ffe9
fff4
ffe8
0000
fff5
0008
0014
0006
ffec
fffe
0007
0011
002e
ffe1
ffee
000f
fffb
ffed
0025
000b
0008
fff0
0011
fff1
ffe1
fff6
0015
0018
ffea
000d
ffde
000f
ffe7
000b
0000
fff2
0003
0014
fff6
000e
ffe3
000c
ffb1
0022
000a
0004
0006
ffde
0006
fff5
fff9
000e
0001
fff4
0000
0000
0000
0000
0000
0000
0000
0000
fffd
0005
000c
ffe3
ffe7
0010
0005
fff6
0011
0019
0010
003e
001a
0014
fff9
ffea
002b
000f
0011
fffd
0017
002d
0000
000a
002f
0015
fff8
0015
0018
002b
0018
0016
0048
0012
0010
0014
0016
ffc3
0000
0008
0044
000c
000f
0015
0022
0005
ffed
ffef
000d
ffee
fffc
0020
fff5
fffc
ff92
0017
001e
fffb
ffe0
fff1
fff4
fffa
fff4
fff7
0002
001d
0013
0000
000d
0014
0027
0012
ffc7
fff4
ffa3
fff6
fff8
ffe0
0014
fff9
ffc9
fffe
001f
000b
ffdf
ffd6
ffdb
fff2
ffe8
fff3
ffd9
000b
0016
000c
000a
ffe6
ffd4
fffb
fff5
ffdd
fffb
0002
ffed
ffd2
0002
0026
001c
001c
001a
ffec
0009
0003
fffd
0028
ffbd
fff0
fff1
ffe3
fffe
002a
0000
0000
0000
0000
0000
0000
0000
0000
000a
0012
ffee
fffd
0007
000a
fffc
002b
ffdf
000a
fff9
001b
0026
0000
000c
ffea
0017
fffc
0016
fffa
0005
000a
0006
0011
fff9
fff1
0011
fff2
fffa
ffeb
0020
0009
ffee
002a
ffee
0019
ffd4
0045
0000
fff8
ffd0
fffc
fff9
000d
fff0
fff0
000e
0016
0013
0011
0016
0001
ffec
fff8
004f
0018
fffb
fff1
0000
ffb3
ffff
fffd
fff4
ffe9
0022
ffd5
ffec
0000
fff2
0019
0012
0008
0011
ffe0
0002
000f
0010
ffe3
ffe7
0016
000e
0012
ffc6
0001
0002
001a
ffe6
0001
0003
000b
ffd6
fff2
0010
0004
0008
002d
0009
0014
0019
fff6
fff7
ffea
0022
0006
fff0
fff2
ffe9
0008
001b
fff6
fff0
0015
ffed
ffa4
0028
0021
fff4
fff4
ffef
fffd
0000
0000
0000
0000
0000
0000
0000
0000
0020
fff6
fff7
fffc
001c
0001
0011
ffd8
0019
0000
ffd9
fff2
001e
0009
ffe9
ffe5
0019
0011
0001
0032
0011
001d
fff3
fff6
fff8
000a
ffde
ffe8
0019
ffe3
0013
0007
0054
ffdd
0000
0009
0021
ffde
0014
000f
0009
0008
001e
0004
fffa
ffe9
fff5
000d
0016
0009
fff1
fff4
0004
ffeb
0001
fff9
0006
fff5
fffe
0034
000f
0033
ffe2
fffd
0018
fffa
ffdb
fffa
fffc
ffed
ffe5
ffe2
0008
0016
fffd
0011
fffe
000a
000e
0000
0001
0000
fff7
0005
0002
fff0
0016
ffcf
0027
fff6
fff3
ffee
0006
0006
ffde
fff4
0029
0015
000e
0028
0013
fff9
ffef
0010
0023
001b
0016
000e
ffcc
ffe5
fff4
001a
003b
0043
ffed
000b
fff7
fff8
fffb
fff4
0000
0000
0000
0000
0000
0000
0000
0000
000a
0006
001e
0020
000d
000b
0000
0026
0013
0012
001d
000e
ffeb
fff8
0025
0006
0002
fff0
0005
ffed
000f
ffef
0016
0001
0017
000a
0019
0002
0004
0005
ffde
fff7
ffe6
001c
0005
ffd7
ffef
0015
0000
0012
0002
ffed
0001
0002
0012
0019
0001
0009
fff8
0003
0006
0013
ffef
0020
000c
ffea
000b
fff0
ffee
fff4
000f
0021
0001
ffc2
fffb
0022
0023
fff7
0007
0001
0011
0022
fff3
fff9
000d
000b
000e
0013
0017
001a
0021
0002
0027
0000
0022
0022
fffc
0017
fffd
ffe2
ffe2
0002
0003
fffc
0019
ffe5
ffdd
0013
ffed
ffee
fff2
fff7
0011
000f
ffd7
ffe3
0013
fff0
ffeb
0011
0003
0008
ffea
ffd7
000a
fff3
000d
0006
0015
fffa
0000
0000
0000
0000
0000
0000
0000
0000
002c
0002
0006
fff6
fff4
000b
fff6
0015
ffe4
0000
fff8
0025
001d
0018
000b
fff6
ffeb
fff3
0006
ffef
fff0
001e
0004
000b
002a
fff9
0015
fff0
001f
ffdc
fff7
fff8
004e
ffee
0011
002d
0000
fffe
001d
0001
ffdb
0013
ffda
0003
fff2
ffa3
fff3
000b
0015
fff9
000b
0018
fffc
0024
fff1
fff4
001c
ffee
ffdd
001d
ffe1
001e
000c
0014
004c
ffe5
ffc1
ffed
ffe8
0000
ffb6
000a
000b
0020
0026
000e
0006
ffe4
0000
ffec
001c
0011
fff2
fff3
ffe0
fffd
fffc
001c
000b
ffee
fff1
ffeb
fff4
0033
0008
000a
ffcf
0010
0007
0003
0005
0013
002b
0007
ffe7
0000
fff9
000b
ffa9
ffeb
0004
0036
0000
ff9d
0004
0028
0008
0002
000c
fff0
0000
0000
0000
0000
0000
0000
0000
0000
fff4
fffb
0001
0013
0000
0012
fffa
fffc
ffdd
0002
002a
ffe6
ffe0
fff0
ffe1
fff7
0021
000d
0009
0015
0025
001f
0038
000d
0009
fff9
0019
0009
000d
0018
0035
fff6
ffeb
001d
000f
0012
0005
fffb
ffd3
fff9
ffd7
fff3
0017
fff5
0005
0011
000e
fff6
fff9
0009
fff7
ffd8
fff0
fffa
fff9
ffe6
ffeb
fff6
001b
ffee
003b
0015
0015
ffd5
0014
ffe3
0008
ffe8
fff4
ffe6
0019
ffff
0017
0037
ffff
000d
000f
000f
ffe4
0010
fffe
0013
0003
0013
ffcf
fff4
0012
0010
0019
ffec
ffee
ffef
fffe
001c
001c
0019
0033
0010
ffed
000b
002d
fff7
ffe8
ffe5
0010
0029
0003
ffe1
0002
fffe
ffef
0013
ffe3
ffe3
0008
0013
ffec
fff6
0004
0022
0000
0000
0000
0000
0000
0000
0000
0000
ffe3
000f
ffe6
ffeb
ffff
0000
0008
ffe9
ffeb
fff0
fff9
fff5
000b
0000
fff1
fff8
000f
000f
0002
ffe7
000a
fff4
ffec
fff6
ffdf
000a
fff7
0000
fff4
fffd
fffb
fffd
ffec
0003
fffb
ffe6
ffe8
fffe
0006
ffee
fff3
ffff
ffee
fffe
ffe7
0001
0003
ffea
fff9
0010
0005
0003
0006
ffee
ffeb
ffff
ffec
fff5
fffb
fffc
ffeb
0013
ffe9
ffee
0004
ffed
ffe7
ffe8
fff5
000c
0004
0007
0010
fffb
000b
0014
0002
000d
fff7
fff8
000f
0008
fffb
0013
ffec
fffa
ffe6
fff0
ffe8
000e
ffe6
0012
0012
000c
ffef
fffe
ffe8
0000
fff4
000e
ffea
0012
fff0
0001
ffee
0001
0011
ffec
0005
fff5
fff9
000f
0003
ffef
0000
000c
fffa
ffee
fff8
0000
0000
0000
0000
0000
0000
0000
0000
0000
fff4
0004
fff0
fff9
000a
0019
fff4
fff1
0017
002a
ffe3
002a
0000
fff7
000b
fff1
000b
fffa
fffc
fffb
000e
fffe
ffe2
0015
0030
0002
0016
0013
0008
0013
0001
0002
0009
0008
000c
ffe6
001f
0007
ffe1
0016
0035
0011
0018
fff9
001a
0023
0010
0001
0008
0010
fff7
ffea
0001
0005
fffd
0026
fffe
ffec
0015
0006
0018
0021
ffda
0024
fff2
0025
0011
fff5
000f
ffda
0003
ffed
001e
000f
ffee
0003
0008
fffe
0013
fff3
ffdb
0001
ffec
000b
0000
002f
fffc
ffe2
0025
ffe6
0004
fff6
fff7
ffff
fffc
0011
0011
0004
fff5
fffe
0007
fffc
ffed
002e
fff0
fffd
fff9
ffe5
ffa8
0017
000c
0016
002d
0046
fff6
0032
0017
ffec
0015
ffdd
0000
0000
0000
0000
0000
0000
0000
0000
ffe0
fff0
ffda
0000
fffb
000d
ffe7
0008
0003
ffe1
ffff
0010
0023
fffb
0041
000b
001e
000f
fff1
ffe8
fffe
000a
0000
0002
ffff
fff2
ffc4
000b
001a
0022
0009
0008
0007
0016
000a
001e
ffd4
fff6
000b
0004
001a
ffef
0008
ffed
0000
0007
0007
0014
0019
0000
fffe
0015
fff7
0005
0013
0040
002d
fffd
fff7
fff5
ffd1
0011
0015
000d
000b
0017
0043
ffea
ffea
fff0
001c
ffed
ffe5
ffbf
0004
0005
0007
ffdc
0000
ffff
fff0
fffa
0025
0001
ffff
ffde
ffff
0005
0002
0014
ffed
fff5
ffe5
ffef
0004
0001
001b
fffe
0001
ffbc
fffa
fff8
002a
ffdb
ffd9
000f
fffc
0015
fff8
0010
0017
ffd5
000c
0037
0003
0005
fffe
fffc
0018
0017
0000
0000
0000
0000
0000
0000
0000
0000
ffe8
0012
000e
fffb
0008
0011
000b
0003
fffd
0006
0007
fff7
fffd
0004
000b
fffa
0010
fff6
0012
0006
fff9
fffd
fffd
0015
fff1
0007
0002
fffc
fff0
ffe4
0009
ffef
fff5
ffe9
0014
0001
ffe8
ffff
0010
0002
ffe6
0003
0001
000d
fff6
000e
ffff
ffef
000f
000d
0000
0003
fff6
000e
000d
fff7
0003
000e
ffef
0007
000e
ffe8
0006
000a
ffee
ffea
000e
fff3
0003
ffff
ffe5
000d
fffa
ffe8
0010
0001
0009
fff7
0000
fff2
fffc
0017
ffee
ffea
ffec
ffeb
0000
fff8
ffff
0000
ffed
0013
fff0
fff7
0001
ffe9
fffe
fffd
0006
0008
ffe6
fffe
ffe7
0001
ffe9
0006
fff2
0005
ffef
ffe7
ffec
ffe9
0002
0014
0003
fff5
ffef
ffe5
0000
fff8
0000
0000
0000
0000
0000
0000
0000
0000
ffea
0001
ffff
0011
fff4
000c
0013
000a
ffe9
ffed
fff8
fffb
ffda
0006
0033
0000
0004
0008
fff6
ffef
fff8
0001
ffeb
0007
ffea
fff1
002b
fffc
ffe7
0005
000a
002e
ffd9
ffe6
0007
0002
0011
001f
0014
fffa
fff2
fffe
0020
0000
ffec
000b
fff5
ffff
0008
fffb
ffea
fff0
0002
0003
0020
0012
ffe5
fff1
0017
ffde
0000
fff4
0000
0004
ffce
000b
004e
fffc
0009
0014
0004
ffe7
0011
ffd8
0023
fffa
0010
0000
0019
000f
000a
fff2
000f
0017
ffdb
ffec
0019
fffc
fffe
000f
ffff
ffef
fff2
fffa
000f
0026
001c
fff3
fff5
fffc
ffe3
fff8
0002
0014
000a
ffeb
0008
fffe
0018
001a
0017
ffd9
000f
004f
0003
000d
fff5
000d
ffff
000c
0000
0000
0000
0000
0000
0000
0000
0000
002e
0011
ffee
0009
001b
0001
0000
fff7
001e
000b
0009
0026
0026
fff8
0017
ffeb
0028
0011
0005
ffe4
ffed
ffea
fff5
000f
0019
000b
0000
fff2
ffee
0009
ffc5
fffe
fffa
ffe3
0005
0001
0030
001f
0026
0007
000c
0001
ffe4
000c
ffe7
ffdd
fffa
fffd
ffed
0006
0014
000b
fff8
fff6
000c
0022
fffb
fff1
ffd2
000a
ffa7
0012
ffec
000b
0008
000a
0003
ffe9
fffb
001d
ffec
fffa
0021
ffc3
000d
0009
0014
fff6
0000
ffe2
0023
0001
0014
000d
0003
0017
fffa
fffc
0011
000d
0017
fff7
0013
0013
0009
0011
ffb6
fff6
000f
0005
0003
0002
002e
0038
ffe9
fff4
ffd1
fffb
0003
000b
fff4
000a
001a
ffef
0003
ffe2
000f
ffee
fffb
ffea
0000
0000
0000
0000
0000
0000
0000
0000
0006
fff6
ffe3
ffe6
000a
fff1
0019
ffe0
ffd6
ffdc
fff9
ffeb
000e
0006
0013
0011
0023
fffa
0001
0017
fff9
fff3
ffdf
0001
0008
fff3
000c
ffef
000b
ffdd
0008
fff2
0044
ffff
ffef
fffd
fffd
000b
0005
fffc
000b
ffe7
ffe9
fff3
ffe1
ffc4
000f
ffe7
fff5
fff6
000b
fffa
fffc
000b
0001
0016
ffe9
ffec
0003
0032
fff7
001d
0020
0032
0017
fffd
0003
fff7
ffed
0000
ffd1
ffef
0020
ffff
002b
fff2
0011
ffea
ffd7
fff2
0007
0004
ffeb
000e
ffdd
ffee
0023
fff5
0026
ffec
0008
0007
ffe8
001b
fffc
0003
0014
fff7
fff3
000b
0011
fff3
0017
ffef
ffe8
0009
0010
fffc
ffc1
000a
0012
fffd
0000
0041
fffd
0009
0004
0013
fff8
ffed
0000
0000
0000
0000
0000
0000
0000
0000
0012
000c
ffed
0005
ffe3
ffed
0005
ffe7
0008
ffe7
fff3
0019
0006
ffef
0006
fff2
0017
0004
ffff
0012
fffa
0000
0007
fff3
000d
fff1
fffd
fff6
0033
ffe1
fffe
0000
003e
ffe0
0009
0022
000d
ffe4
ffe7
0007
0000
fffa
0004
0003
001f
fff0
000e
0004
0008
fffb
0004
ffed
0001
ffdd
0000
fffb
0009
ffef
ffde
003f
ffd5
fff9
0020
001a
002b
0017
ffed
fffb
fffd
0000
ffd2
ffec
001f
000e
0017
ffe9
0002
0015
fff2
fffd
001f
000a
0000
0018
fffb
0005
001e
001a
0019
0020
fff1
ffeb
ffe8
0003
ffed
ffef
0005
0013
0010
0006
0016
0006
fff4
ffef
ffed
fffb
fffb
000e
ffe5
ffec
ffed
fffa
ffea
ffdf
000d
001f
ffff
fffd
0000
0017
0000
0000
0000
0000
0000
0000
0000
0000
fff8
fffb
000b
ffee
0008
0010
fff3
0002
fff9
000b
ffe9
0003
0008
0006
fff8
ffff
fffb
fff1
0000
fff9
ffea
fff0
ffeb
fff8
fff5
0000
000c
000a
ffee
fffe
fff8
0002
000a
ffea
0000
0005
fffa
fff2
000d
fff3
000b
fff0
0011
000f
ffe5
fff6
ffed
000f
0013
0005
fff3
ffff
fffe
0010
0006
ffff
0001
fffb
ffef
0000
ffec
fff5
0006
ffeb
fffb
fff4
ffe8
fffe
0012
fffd
fff0
fff6
0000
ffee
fff6
fffe
000b
fff4
0007
fff8
ffe6
ffee
0010
000a
0003
000e
fff8
fffe
000e
0000
000a
ffec
ffee
fffc
fff5
0008
ffff
fffa
fff8
ffff
fffb
fff0
ffe9
ffff
ffe8
ffe8
ffec
000d
ffe3
fff7
fff5
fff3
ffec
fffd
ffe5
fff0
0000
0002
000b
fff6
0000
0000
0000
0000
0000
0000
0000
0000
0026
0001
001a
fffb
0007
0009
ffff
fff9
0000
fffc
fff1
000f
000e
fff3
ffec
000d
ffdf
ffef
0002
001c
fff5
ffe9
ffbb
fff1
000c
0005
fffd
ffef
fff6
ffd9
ffaf
001f
ffe0
ffe8
000a
0003
0044
fff9
0004
ffea
0019
0008
000f
ffe6
ffc7
fffa
ffff
fffb
fffd
fff2
fffa
001f
000f
0000
0005
fff1
ffe8
0004
ffed
0001
ffc4
fffa
ffd9
002a
ffca
0014
000a
0002
0016
0022
0005
0000
ffeb
ffe2
ffcd
fff2
0008
0009
fff4
ffe1
fff7
0013
0005
0007
ffbe
ffef
002c
fff0
ffd8
fff4
fffa
000a
0000
ffdb
fff2
0023
ffc6
000c
ffef
000e
ffec
fffb
0022
0017
0019
0005
0004
ffe3
0055
ffdd
fff4
ffd2
0025
003b
ffdc
ffcd
0012
0021
fffc
000c
0000
0000
0000
0000
0000
0000
0000
0000
fff1
fffc
ffdb
ffe1
fffc
0002
fff8
ffe1
ffe9
fff9
ffff
0004
fffd
0000
fff0
fff4
ffe0
fff8
0012
fff4
0002
0008
000e
fff7
fff4
0012
0006
fffa
ffe5
0001
ffeb
0012
0016
fff5
000b
fffa
ffea
000c
fff3
fffe
fffc
ffef
fff9
0011
fff3
ffee
000a
000c
fff8
000d
0009
ffe2
0005
ffef
0005
ffda
ffe7
fff0
ffeb
fffd
0000
fffc
000d
0000
fff6
fff2
ffeb
0016
fff2
fffd
ffee
0004
fff7
0002
ffff
0003
fff5
fff4
ffd5
fffd
ffc9
0011
ffef
0002
fff7
ffe9
fff6
ffda
ffed
0013
0002
0016
ffe9
ffef
ffdd
0000
0003
000f
fff8
0001
0000
fffe
ffec
fff9
fff5
ffe3
0000
fff2
fff0
fff9
000a
fff5
ffe6
fffb
000c
fff1
000f
fff9
fffd
fff7
0000
0000
0000
0000
0000
0000
0000
0000
0044
fff6
0007
ffd1
ffe7
ffef
ffee
001d
fffd
0031
0025
0032
0020
000c
ffe2
0007
0002
0010
ffef
ffe9
ffda
0019
fff4
fff8
0006
fff9
001c
0015
0027
000f
ffda
ffee
002d
fffa
fff1
0001
0027
fffc
fff6
0008
0017
fff0
ffd0
fff4
fff9
ffb0
ffe7
fff4
0000
ffef
0006
0017
fffd
fff7
ffdf
ffd8
0012
fffb
ffdb
002e
ffce
ffde
fff7
0042
0022
ffe3
ffbe
0000
fffc
000b
ffad
fff5
0012
ffdf
000c
ffee
ffee
ffe8
fffd
ffbd
fffc
0003
fff0
0005
0018
002c
0011
0000
fff1
0001
0004
fff9
ffdc
fff1
002a
0002
ffc0
ffee
ffef
000a
0005
ffec
001a
0014
ffd3
fff5
0008
0017
0010
ffdc
ffee
0027
ffe4
fff6
0017
0012
0013
ffb6
fffa
0003
0000
0000
0000
0000
0000
0000
0000
0000
fffe
ffef
fff9
000a
0003
000a
fffc
fffb
ffe9
fffe
ffe3
fffc
fffa
fffb
ffef
fff6
fff0
fffa
fffe
ffeb
fff4
ffec
000a
fff3
fff7
000e
ffea
000c
ffe5
fffd
fff2
0007
ffe6
000f
ffec
fff5
0001
ffff
ffeb
0009
ffec
fff0
0003
0018
ffeb
fff4
ffec
fff5
ffee
0004
0000
ffed
ffea
ffee
fff0
ffef
0001
000f
fff2
ffed
fff9
fffb
ffe7
fffd
0001
000f
ffe5
0000
fffb
fff5
ffed
ffea
0003
fff8
fff7
fffe
000e
ffe5
ffea
0010
fff7
000f
0010
0014
000c
ffe9
000b
0002
fff1
0007
ffed
000d
0007
fffc
fff2
fff6
000c
0011
fff8
ffee
fffa
0003
fff2
fffc
0007
000c
0002
0001
ffea
fff5
fffb
0000
000e
ffea
ffe6
0004
ffef
fffe
0010
0007
0000
0000
0000
0000
0000
0000
0000
0000
ffef
0004
0022
fffa
ffe1
fff7
0007
0021
0017
0021
0003
fff2
ffd8
fffe
0009
fff3
0000
ffed
0000
fff0
0006
0017
ffe6
0008
0021
fff0
0017
000e
ffd2
000a
0017
0004
ffc6
0032
fff8
ffe5
fffe
0026
ffef
0006
003c
000d
fffe
001c
fff4
0033
0002
0007
fff2
0009
000d
0011
0008
000c
ffc4
ffe0
ffe3
0006
fffe
ffe6
0037
fff2
fff9
0011
ffb2
0011
0018
0011
ffed
0021
0036
0005
ffec
fff8
0008
fffa
fff1
0011
fff6
0012
ffff
fffa
fff8
000f
fffe
0012
0007
000f
000c
ffef
fff4
fffd
0026
fff3
0021
0019
000f
fff3
fffa
0001
000b
0017
ffe2
0006
0003
ffdf
fffb
ffe9
0010
0000
0006
000c
fffa
0023
0012
000e
fff1
fff2
fff3
0022
0000
0000
0000
0000
0000
0000
0000
0000
002b
fff3
ffdc
0002
0038
0014
ffef
ffd8
ffe7
ffee
ffec
ffeb
0024
ffee
ffef
fff1
fff1
fff9
fffa
0009
fff6
fff6
001e
0005
0019
fffd
0000
fffa
0008
001d
ffe7
0001
002d
fff4
0003
0030
ffeb
0021
fffc
0004
0014
000c
fffc
fff8
fff9
ffcd
fff9
0006
ffed
fff2
0013
ffe4
0002
0000
0006
fff2
0009
0006
000f
fffa
ffbc
0014
0031
001b
002c
ffed
ffdc
0002
000e
fffb
ffd3
0002
000e
ffd4
0029
fff0
0009
ffd3
ffeb
fff1
0005
000a
ffee
000b
ffe4
fffd
fff3
fff9
fff3
000b
0019
0006
ffff
0026
fff7
002d
ffdb
000f
fffc
ffe8
0007
fff0
002f
0005
0007
0029
fffe
0029
ffe5
0017
0012
fff3
001d
000b
000f
fffe
fff4
ffef
ffee
ffe4
0000
0000
0000
0000
0000
0000
0000
0000
fff3
fffe
001d
0034
0002
ffe7
ffec
001e
fffb
0026
001e
0024
ffe6
0000
002e
0002
ffea
ffea
000c
ffea
ffe9
0010
0023
ffee
ffe8
fffc
fffb
fff6
0026
0003
000c
0020
0000
0002
0010
0007
ffda
000c
0014
fff7
fffb
0007
0012
000a
002d
001f
0009
ffef
0005
fffc
fff9
0026
0013
fff9
fffd
ffe7
0036
fffb
fff6
ffe2
ffe6
fff8
0002
ffc4
0003
002c
001b
fff1
0009
fffe
fff6
001b
0012
0009
fff3
000a
ffee
0018
0032
0004
001d
0000
001f
0005
0030
0021
0007
0020
fff4
0007
fff8
fffe
fff7
fffa
fff3
fff6
ffd5
0000
ffed
0006
fff9
ffe6
0014
000d
fffc
001e
ffef
fffa
ffef
0013
fffc
ffd4
ffd6
ffbe
fff6
fffd
0007
0015
0014
fffb
0000
0000
0000
0000
0000
0000
0000
0000
0028
ffef
000d
ffc9
ffff
fffe
fff2
ffea
0003
ffed
fffe
ffeb
0033
0002
ffe3
000c
fff0
0011
0005
0004
fffd
ffea
fffa
fff3
001b
fff4
ffef
ffee
ffd0
000b
0003
000c
0035
fffb
fff7
0007
002b
ffe5
0001
0017
0022
0013
ffe2
ffed
fff4
fffb
fffd
fffd
0017
0008
0004
001f
0010
fff1
ffee
0028
ffe6
fff7
ffdb
0006
ffb7
001b
000c
0023
001f
ffe8
ffed
0006
fff0
0025
ffe8
0028
ffe9
ffdd
0001
0002
ffee
ffd7
0011
ffd2
ffe1
0002
0017
fffa
ffeb
ffe4
ffea
0004
ffee
ffff
002d
ffea
000e
002d
ffcf
001c
0001
0013
0011
fff1
0010
fffc
002f
0035
001d
002a
000a
ffca
0001
fff2
fff4
fff7
0008
ffdb
ffef
ffef
fff7
fff0
0012
fff2
0000
0000
0000
0000
0000
0000
0000
0000
0028
fff9
001b
0008
fff0
0010
fffd
fff3
001c
0031
000a
0007
0007
fff5
ffe0
fff3
fff4
fff7
0003
0022
ffff
000d
fff7
0005
001b
0005
ffea
ffe6
ffe2
ffe5
fffb
ffe3
0018
ffdc
000d
0023
0021
ffd6
000d
0000
002c
0010
fffc
0013
ffff
0005
fffa
ffef
fffe
0012
000f
001b
ffff
0018
ffbe
ffc8
0017
0002
0003
0017
0012
fffc
ffef
0017
ffef
fffc
ffeb
fffe
000a
0021
000d
0012
fff9
0020
ffed
ffe7
0008
001e
0021
ffdd
0000
0002
0002
ffe5
0002
ffe9
001b
0003
ffed
fff9
0000
fff8
0015
ffe1
ffe7
001f
fff5
0000
fffc
0021
000c
0013
0012
0020
0013
0014
000b
0003
000a
0003
0007
ffe3
0027
fff0
ffde
0014
0013
ffe1
fff1
0020
0000
0000
0000
0000
0000
0000
0000
0000
ffe7
0006
0007
0009
0015
fffe
0011
0005
fff6
ffec
0013
fff4
ffc4
000c
0002
0005
001f
0005
fff3
ffe6
0023
0023
0020
ffec
000e
fff2
0013
fff4
ffe8
0028
0015
0003
ffc7
001f
ffe4
0008
0021
0003
ffdb
0008
0009
fff2
0005
000a
fffe
ffec
0009
ffee
000c
fff8
0000
ffe3
ffeb
ffe3
ffe2
fff3
ffea
0005
0040
fff5
003f
000b
000a
002a
ffcf
001e
fff4
000d
ffff
fffc
002d
0000
fffc
0036
fffc
0011
0006
001f
fff4
0013
0007
ffef
fff8
0012
fff0
fffc
0008
000f
0019
fff3
ffee
0011
fffb
ffe3
fffe
0016
0035
fffc
ffeb
0025
001c
000a
fffc
ffee
0013
000f
0005
ffdc
fffe
0017
0004
fffc
0027
0058
ffec
0002
0016
001c
000c
0018
0000
0000
0000
0000
0000
0000
0000
0000
0024
0005
001f
0000
fff8
fff6
000c
0024
ffdb
fff8
002c
fffd
0012
fff1
000f
fff2
0007
000c
fff8
ffeb
ffe7
0018
0026
0002
fff7
fff9
0037
0006
ffee
fff0
ffef
0002
ffee
ffe5
ffff
0013
0000
0027
0006
000e
fff1
ffee
ffd3
0010
0012
ffe6
0009
fff1
ffed
000d
0015
000d
fff1
0024
0011
fff6
001c
ffe6
0011
0032
ffee
ffd2
001f
000f
0004
0000
ffef
fff9
0013
0028
0006
ffed
0016
fff2
002d
000d
fff8
0018
fff5
0021
0035
0015
0010
fff8
fffe
fff6
0016
003a
ffec
0000
0013
fffa
fffb
0005
0032
0009
0019
0010
0015
001f
fff0
0000
0012
fff3
0011
fffa
0010
001a
0019
001d
fff6
0006
ffd4
ff92
0032
000a
0001
ffe7
0018
0016
0000
0000
0000
0000
0000
0000
0000
0000
fff8
0011
fff5
fff7
fffd
0013
ffef
ffed
001e
fff4
ffee
0004
0000
0015
ffe2
fff9
ffe3
000e
0014
0002
0012
ffed
000b
0007
ffe3
0008
ffdf
000e
0018
fff8
0002
fff3
0012
ffe8
0002
0000
ffd9
fff9
fffa
ffeb
ffeb
0014
0008
fff8
ffec
fff6
0002
0000
fff4
0004
0013
000d
ffff
0010
ffef
0006
ffee
fff1
ffe7
fffa
fffb
ffed
ffef
0006
fff1
ffee
ffe1
0007
0002
ffe6
ffee
0003
fff9
0006
fffe
0004
000f
0010
000a
fff7
fff6
fff2
ffe5
0001
fff0
fffc
fffa
ffef
fffc
0013
ffdb
fff2
ffef
fff2
ffdc
ffce
0002
0017
ffef
0002
ffeb
0008
ffee
0000
0011
0001
000e
ffc3
ffda
ffe3
fffe
fff5
ffe5
fff1
ffcf
ffec
fff8
000c
0000
000a
0000
0000
0000
0000
0000
0000
0000
0000
001d
ffee
ffde
fff5
000c
fff3
000e
0006
ffe9
0009
0003
001c
ffc0
ffeb
0033
0015
0030
0001
0009
ffd3
001a
0005
0036
0013
ffed
0008
001f
0010
ffe4
0025
fff6
0005
ffff
0006
0007
0014
001a
0037
ffee
fffe
003a
000b
ffce
fff1
000c
ffe2
0007
000f
ffff
0012
fffa
0012
fff7
ffe3
ffeb
ffdd
ffde
0006
0037
000a
ffe8
002a
002e
0031
ffea
0000
ffee
fff0
000a
000a
0000
0018
0023
ffdf
000c
ffee
0006
fff6
000a
ffe2
002a
ffef
0005
fffb
0004
0016
0018
0012
001a
fff8
002b
fff4
ffed
ffe0
000e
000e
ffda
000a
fff1
0017
000e
000a
000a
002f
fff7
0010
ffe6
fffe
fff7
0015
fff7
ffce
000e
fff9
001d
ffd3
0000
0001
fff4
000c
0000
0000
0000
0000
0000
0000
0000
0000
ffe3
0010
0007
ffe5
fffb
0001
000b
ffdd
fff7
0002
0016
ffef
ffec
0014
ffef
0011
ffe0
0007
0000
000b
ffeb
ffe6
0003
0002
fff6
0000
0009
000b
000b
fffc
ffe7
0012
0000
fff3
ffed
fff3
ffed
0009
ffe5
ffef
fff6
ffeb
000b
0011
0004
0001
0005
fffe
fff8
0015
0001
fff4
ffec
0005
0000
fffb
ffe1
fff1
001a
ffe7
ffff
0005
000d
fffb
fffe
0000
ffe8
fff8
ffed
fff8
ffe8
0003
fffb
fff0
fff2
0007
fffb
fffd
0009
ffff
fff7
000e
0002
000a
fff4
0003
ffed
000e
fffe
fff9
000b
0012
fff7
ffce
fff5
fffb
ffd5
fffb
fff0
ffee
0002
ffef
ffe3
0003
fff5
000a
ffd6
0009
000c
ffe6
000b
ffe1
0005
fffb
ffe5
ffdc
0004
ffe5
fffc
0006
0000
0000
0000
0000
0000
0000
0000
0000
fff9
ffec
fff0
ffe3
0000
0005
0008
ffee
fff0
0002
ffe1
0006
0006
0002
ffea
fff3
fff1
0011
0014
000b
fff8
ffbb
ffe6
0007
ffcd
fff0
ffd8
fffe
fff1
000e
ffe9
0005
0010
fffb
0004
ffde
ffcd
000c
ffec
0014
fffc
fff1
ffc5
0005
ffdc
fff9
000e
0011
fff7
000c
ffee
0002
fff8
000b
ffe0
0015
fff3
0016
fff4
ffb6
fff5
fff7
fffe
ffbc
ffc3
0005
fff8
0013
fff6
002e
fffc
0004
ffc8
fffd
fff1
000e
ffef
ffdd
ffcc
0004
ffc5
fffd
0004
fff3
fffd
ffc3
ffe2
0018
ffeb
fff5
0004
ffeb
ffe4
ffde
0006
ffb8
ffdc
0014
0015
ffc6
ffd7
0000
0032
0043
ffd8
fff2
ffd2
000c
0029
fff8
fffd
ffd0
ffd6
0007
fff9
ffef
000f
0003
fff0
ffde
0000
0000
0000
0000
0000
0000
0000
0000
0006
0001
0015
000b
ffe6
ffe5
0001
0021
000f
0025
fff7
0007
0039
0008
000b
fff5
ffe8
fffe
fff8
003a
0016
0018
fff4
0007
0013
fffc
ffda
0001
0040
ffe4
000e
fff4
0041
0016
fff7
fffe
0005
ffca
0034
0010
ffbe
0019
002e
000b
000a
0019
fff5
0019
ffff
fffb
fff8
0001
0008
001a
fffe
fff5
0032
000f
fffa
0020
0003
fff7
ffef
fff1
001d
fff7
0026
0004
fff5
fff9
ffe3
ffef
000c
002b
fffb
ffec
ffeb
fff6
000b
0012
0019
0013
fff9
0019
0012
0013
0011
ffe3
0005
0013
ffd0
fffa
001d
0029
001c
ffe5
ffee
0007
ffef
fff8
ffeb
0008
ffe1
ffc6
fffc
0003
000b
0020
0012
ffe9
0012
0014
0005
0019
0003
001f
fff8
000e
fff7
0025
0000
0000
0000
0000
0000
0000
0000
0000
0020
ffea
0010
0005
0013
0002
0013
0029
002d
0023
fff2
001e
000a
0014
0007
000d
ffcb
fff5
ffef
0019
fff1
fff6
ffdc
fff4
0007
fffe
fff6
0000
fffe
0000
fffd
0002
ffe1
0011
000b
ffd1
001c
0005
001f
fff4
0012
0002
0000
fff2
0003
0030
fffa
ffe7
001a
fff9
ffed
fff7
fffb
0002
fff9
0023
001f
0000
ffe2
ffd4
ffea
0001
ffe2
ffc3
001d
0027
0010
0002
0009
000e
0005
001c
000e
fff5
0000
0002
0000
000f
0028
000a
ffd5
0002
fff8
000b
0027
0017
ffee
ffc9
0000
fff4
0004
ffea
0027
0018
0006
0011
ffca
fff9
fff5
0001
ffec
0014
0015
0036
ffe5
ffda
0005
fff7
0002
0000
000b
0023
0004
ffe7
ffff
0005
000d
001f
fff7
ffd0
0000
0000
0000
0000
0000
0000
0000
0000
ffff
0012
000f
ffdf
ffe2
0000
ffff
0010
0029
0002
ffe5
0030
fff6
fffa
ffde
0016
fff1
0010
fff9
ffd9
0003
0008
ffdd
ffec
fffa
0010
ffeb
ffec
ffc4
001d
0003
fffb
fffe
0010
0016
0008
0015
fffc
fff1
fff2
0050
0004
000d
0004
0028
fffe
000e
0006
fff7
ffef
ffe7
0016
fff5
ffdf
ffbb
fff1
0009
fffa
fffd
ffd0
0018
ffef
ffe4
000d
ffc1
0026
fffb
fff2
fffa
000f
0022
fff3
ffcb
0003
ffd3
0002
0007
fff3
0026
fff5
0003
0011
000d
0005
fffd
0011
0007
001d
0000
0008
0029
ffeb
fffe
fff3
0001
0016
ffe7
ffff
0008
fffa
000d
0004
ffeb
000a
0007
0011
001c
0017
0050
fffb
fff0
fffc
001d
0018
ffd9
ffe5
0015
ffe6
0007
0007
0000
0000
0000
0000
0000
0000
0000
0000
0007
000d
fffc
000b
0000
fffd
fffc
fff4
0033
0021
ffcb
0010
0029
0012
0028
fff2
ffe8
0005
fffe
fffd
000e
ffe6
ffd3
fffa
fff7
ffee
ffe5
ffff
0010
0000
ffdc
ffff
000c
ffef
0011
0006
fffd
fff7
002f
fff6
000e
0002
0026
0004
0001
fffa
0014
fffb
fffb
ffe9
fff0
001c
fffe
fff7
ffea
0015
001c
fff5
ffcd
0048
ffd4
0034
fff9
ffe8
0011
0020
0010
0008
fff9
0023
000d
fff9
000a
ffe7
001a
0002
ffea
0010
002a
000c
fff8
0012
0019
ffe6
002f
0009
0004
ffea
0001
fff8
0001
0005
000c
0007
ffff
ffe8
ffe9
0014
fff3
fffa
ffe5
0017
0019
0020
0010
ffe9
fff3
0002
ffff
0020
ffef
ffec
0016
004a
ffef
0002
fffe
0027
fff7
fff2
0000
0000
0000
0000
0000
0000
0000
0000
ffe7
ffea
0002
0001
fff8
0001
0006
fff5
ffe4
ffe1
0017
ffe3
fff4
0010
fff8
ffeb
fffb
ffed
000c
ffec
0011
ffe5
ffec
0010
fff4
ffea
0006
0008
ffef
0002
000a
0015
fff2
fffc
0005
0001
000b
0010
fff8
fffc
fffd
fff8
fffb
0005
fff3
ffe3
0006
ffea
fff0
0001
fff0
fff7
fff8
000b
000f
fff9
0001
fff6
000e
0000
0009
0008
fff2
000d
fff1
fffd
fffd
0014
fffb
0008
fffe
fff0
fff8
0002
ffed
fff8
0003
fffe
fff5
fffd
fff7
0009
0003
000d
0006
ffe0
ffe6
ffec
fffb
0006
ffe7
0009
ffe1
ffec
ffe1
fff8
0003
fff9
fff5
ffde
0002
fffc
ffe4
0004
ffff
ffe4
fffd
0012
000c
0001
0011
0013
fffe
ffef
ffeb
0004
ffeb
fff4
0011
ffe8
0000
0000
0000
0000
0000
0000
0000
0000
