ffdc ffe7 ffe2 000d fff2 ffe5 0012 0024 0025 fffc 0000 0001 fffb 0018 fff3 0021 0000 0005 fffd 0018 fff4 0008 fffa 001a ffdf 0010 000b fff9 0019 000b 0010 0010 ffec 0019 0001 ffd0 ffe1 0015 0012 000c ffee 0002 0001 ffe8 0016 fff9 fffe fff8 001b fff4 0003 0017 000f 0009 002d fff6 0018 0002 ffea 0006 0012 fffc ffed fff6 0000 ffe8 ffec fff5 fffd fff7 0019 000d 000f 0000 000a ffdb 000d ffdb ffd4 001a 0014 ffe0 0004 ffe6 