fff3
0006
0025
0001
0016
ffe9
fffd
ffdc
0015
ffe3
0001
ffdd
fffa
ffd4
0042
0000
0016
0026
ffe9
fffa
ffee
0009
ffe8
ffca
ffed
fff8
ffe1
0013
fff7
000f
ffc0
ffe3
fff9
001f
ffbf
ffd6
ffec
ffff
ffd1
ffdc
ffef
0028
ffd7
ffef
001c
0019
002b
fffa
fff4
0014
ffc6
ffdb
fffe
ffe2
ffcd
0017
ffc8
fff5
fff4
0020
0007
0000
fff7
fff0
000d
fff7
005f
0008
001d
ffc0
0002
0004
000e
ffd6
0000
fffa
0000
ffee
0007
0019
0021
0018
002a
0001
0000
0000
0000
0000
0000
0000
0000
0000
0000
0000
0000
0000
0012
ffea
000f
000e
fff1
fff9
0029
0009
ffc9
fff5
0016
0013
ffeb
ffd7
000a
0026
0008
001c
0000
0025
ffda
000b
000a
0017
0000
fff3
0020
ffc7
ffd1
ffd5
ffed
ffe9
fff4
0012
002a
ffda
0052
ffc5
0013
ffe8
fff5
001e
000d
0007
ffd5
000c
ffd6
0006
ffe3
ffda
000e
0024
ffe1
0004
0000
fff9
002c
0013
001b
0018
fff5
0036
000f
fff1
002a
0002
0001
ffe6
ffdd
0016
ffbc
ffab
ffe2
000a
ffda
ffef
fffc
ffed
0011
000c
ffd2
ffe0
0016
fffe
0000
0000
0000
0000
0000
0000
0000
0000
0000
0000
0000
0000
ffef
0005
ffd6
ffcf
000a
ffd4
ffdc
0022
fff3
fff0
fff6
0028
fff4
ffcd
0038
0006
fff8
ffbf
ffec
ffd6
0022
ffe5
fff9
0023
ffd2
ffeb
000b
fffc
fff5
ffda
0007
ffe7
0011
001d
ffe9
ffc6
ffc0
0017
fff3
ffe0
ffe9
0009
0009
ffff
fff7
ffd8
0000
fff9
0014
ffcd
0015
ffd8
0029
0031
ffe4
fff0
0004
0029
001c
0017
0030
fffe
fff9
ffff
ffda
fff3
0030
ffef
ffff
0016
0026
ffef
ffc9
ffca
000c
fff4
000f
ffe7
0000
fff3
001d
fff1
0025
ffe9
0000
0000
0000
0000
0000
0000
0000
0000
0000
0000
0000
0000
0006
ffe7
ffe9
0026
001d
ffeb
ffc7
0006
0017
fffb
ffd0
0006
0005
0012
ffc2
0024
000c
002a
0007
fff7
0028
ffb6
0015
000a
001c
0005
0033
fffc
fffe
ffd7
002b
0034
0009
000f
ffdd
ffcb
ffe7
001a
fff4
ffd6
000d
ffc9
fff2
fffa
001b
ffb5
0017
ffff
ffdb
ffd6
0034
fff5
0003
0001
001c
fff5
fff4
ffc9
0008
0018
ffc2
fff3
ffea
001c
0008
fff6
ffc8
fff3
0000
ffdd
ffe7
fff3
ffef
0000
0007
ffdd
ffc4
fff9
fff8
0001
0000
ffd4
ffcc
ffe5
0000
0000
0000
0000
0000
0000
0000
0000
0000
0000
0000
0000
0000
0010
fff8
ffe4
fffb
ffff
0020
ffd6
000e
0012
0035
0014
ffea
0010
0018
ffe6
ffe5
ffe2
ffec
ffef
fff0
0018
fffa
ffd6
fffe
001f
ffe1
0014
001e
fff4
ffdd
0004
ffff
ffd6
0013
fffe
ffd1
ffe0
ffd4
0020
ffea
ffdf
ffe3
0005
ffb6
001c
ffdd
0008
fffe
0009
001c
000e
ffe3
003a
0005
0010
ffd8
ffe2
ffeb
ffc9
0021
001d
001b
ffe9
0005
0002
0039
fff4
ffe2
001c
ffe7
000f
001a
fff5
002b
0004
000b
ffe8
ffc7
fff9
ffe1
000d
ffc9
0000
0000
0000
0000
0000
0000
0000
0000
0000
0000
0000
0000
0000
0001
fff3
ffcc
fffb
fff8
0001
fffa
fff2
ffe9
000f
0011
ffdd
0010
0021
ffe8
ffc9
0006
0033
ffeb
ffc1
ffcc
fff2
fff6
0010
ffe8
0019
000b
001b
ffee
fff4
0026
001e
ffe1
0004
ffc9
0003
fff5
0000
0027
fffd
000b
ffe3
0005
ffea
0028
0006
ffce
ffe8
0013
0043
0000
000c
0006
0018
0013
000c
002b
0013
0001
0006
ffe7
ffe2
ffe6
ffe9
ffeb
fff1
0027
ffe5
0013
ffe1
0007
fff2
0011
0012
ffba
ffe6
ffb0
fff8
ffd4
0017
001a
0011
fff4
ffe2
0000
0000
0000
0000
0000
0000
0000
0000
0000
0000
0000
0000
0013
0017
0020
ffd1
ffef
fff7
0006
ffc3
0007
0011
ffe2
ffca
ffef
0017
ffd4
ffd4
000b
000f
fffc
fffa
001b
0001
fff4
0020
ffdd
ffdd
fffe
0012
ffd9
000b
ffd6
0002
fff4
0001
ffed
0004
fff7
001e
fff8
fff6
0019
ffd5
ffea
ffea
ffe5
0023
002c
fffc
0024
0005
ffd5
002a
ffd5
0017
ffdf
0000
0008
ffda
ffef
fffe
0026
0019
ffe0
ffee
0012
0009
ffe2
fffb
ffd6
0033
ffe2
0031
0020
fff7
ffb2
0006
0000
ffff
ffcf
fff5
0029
0024
0029
ffef
0000
0000
0000
0000
0000
0000
0000
0000
0000
0000
0000
0000
000d
0011
ffef
0013
ffe9
ffb9
0012
0024
ffe6
fff3
002d
ffea
fffe
ffcf
0017
0020
ffef
ffd2
ffea
0028
001d
fff3
ffeb
0006
fff6
0027
fff0
0026
0004
0029
fff6
fffd
ffe5
ffcb
0014
0008
000f
ffd1
fffe
ffd2
ffeb
0004
001d
ffed
001b
ffe9
ffb7
ffe7
ffcc
003e
0025
ffe0
fffc
fff8
0009
0000
ffd5
0031
fff7
0022
ffa7
0002
fff6
000b
fff4
000c
ffd0
fff0
ffe9
0015
001c
0030
ffdd
0003
0008
fff0
0012
0002
ffc5
ffc8
ffc2
0017
ffe7
ffea
0000
0000
0000
0000
0000
0000
0000
0000
0000
0000
0000
0000
0000
fffa
ffd2
0002
0002
0017
0016
0011
0029
0001
ffad
fffc
fffb
001b
ffb0
0008
0009
ffcd
ffe7
0002
ffd5
002b
001a
0027
ffe7
0005
fff5
ffe2
001c
0011
001b
ffca
0014
0014
ffc7
fff3
0000
001d
0013
fffb
fff9
fff9
001a
fff5
ffd8
0025
0005
ffe7
000b
ffef
ffd6
0024
0009
000b
001c
0006
ffec
ffd1
fff0
0009
ffb5
0001
000d
fff4
ffba
fffa
ffbe
0000
ffd4
ffd7
0026
ffe7
0008
fffe
fff4
000d
ffd1
ffeb
0010
0036
fffe
ffe1
0013
ffe5
0000
0000
0000
0000
0000
0000
0000
0000
0000
0000
0000
0000
ffe9
fff4
001a
fffb
fff0
ffdd
0017
fffe
0013
ffe5
ffe3
0012
fff4
001c
ffe0
ffc2
0010
ffe7
0008
0000
ffdf
0006
fff7
ffd5
fff4
000f
fff9
0013
002c
ffff
fff4
002f
fff2
0018
0034
ffda
ffef
ffef
fff0
0009
fff9
fff9
ffde
0008
ffdc
0004
ffee
000d
ffef
ffdf
ff90
ffea
0007
ffa6
0017
000c
0009
ffbc
0005
001d
0009
0001
fffa
000c
001c
0008
ffc8
0006
0027
ffe1
0000
ffda
0018
0034
0013
0000
0038
fff2
ffc0
ffc7
fff7
001c
ffd3
ffe2
0000
0000
0000
0000
0000
0000
0000
0000
0000
0000
0000
0000
